[PAD]
[UNK]
[CLS]
[SEP]
[MASK]
[unused0]
[unused1]
[unused2]
[unused3]
[unused4]
[unused5]
[unused6]
[unused7]
[unused8]
[unused9]
[unused10]
[unused11]
[unused12]
[unused13]
[unused14]
[unused15]
[unused16]
[unused17]
[unused18]
[unused19]
[unused20]
[unused21]
[unused22]
[unused23]
[unused24]
[unused25]
[unused26]
[unused27]
[unused28]
[unused29]
[unused30]
[unused31]
[unused32]
[unused33]
[unused34]
[unused35]
[unused36]
[unused37]
[unused38]
[unused39]
[unused40]
[unused41]
[unused42]
[unused43]
[unused44]
[unused45]
[unused46]
[unused47]
[unused48]
[unused49]
[unused50]
[unused51]
[unused52]
[unused53]
[unused54]
[unused55]
[unused56]
[unused57]
[unused58]
[unused59]
[unused60]
[unused61]
[unused62]
[unused63]
[unused64]
[unused65]
[unused66]
[unused67]
[unused68]
[unused69]
[unused70]
[unused71]
[unused72]
[unused73]
[unused74]
[unused75]
[unused76]
[unused77]
[unused78]
[unused79]
[unused80]
[unused81]
[unused82]
[unused83]
[unused84]
[unused85]
[unused86]
[unused87]
[unused88]
[unused89]
[unused90]
[unused91]
[unused92]
[unused93]
[unused94]
[unused95]
[unused96]
[unused97]
[unused98]
[unused99]
[unused100]
[unused101]
[unused102]
[unused103]
[unused104]
[unused105]
[unused106]
[unused107]
[unused108]
[unused109]
[unused110]
[unused111]
[unused112]
[unused113]
[unused114]
[unused115]
[unused116]
[unused117]
[unused118]
[unused119]
[unused120]
[unused121]
[unused122]
[unused123]
[unused124]
[unused125]
[unused126]
[unused127]
[unused128]
[unused129]
[unused130]
[unused131]
[unused132]
[unused133]
[unused134]
[unused135]
[unused136]
[unused137]
[unused138]
[unused139]
[unused140]
[unused141]
[unused142]
[unused143]
[unused144]
[unused145]
[unused146]
[unused147]
[unused148]
[unused149]
[unused150]
[unused151]
[unused152]
[unused153]
[unused154]
[unused155]
[unused156]
[unused157]
[unused158]
[unused159]
[unused160]
[unused161]
[unused162]
[unused163]
[unused164]
[unused165]
[unused166]
[unused167]
[unused168]
[unused169]
[unused170]
[unused171]
[unused172]
[unused173]
[unused174]
[unused175]
[unused176]
[unused177]
[unused178]
[unused179]
[unused180]
[unused181]
[unused182]
[unused183]
[unused184]
[unused185]
[unused186]
[unused187]
[unused188]
[unused189]
[unused190]
[unused191]
[unused192]
[unused193]
[unused194]
[unused195]
[unused196]
[unused197]
[unused198]
[unused199]
[unused200]
[unused201]
[unused202]
[unused203]
[unused204]
[unused205]
[unused206]
[unused207]
[unused208]
[unused209]
[unused210]
[unused211]
[unused212]
[unused213]
[unused214]
[unused215]
[unused216]
[unused217]
[unused218]
[unused219]
[unused220]
[unused221]
[unused222]
[unused223]
[unused224]
[unused225]
[unused226]
[unused227]
[unused228]
[unused229]
[unused230]
[unused231]
[unused232]
[unused233]
[unused234]
[unused235]
[unused236]
[unused237]
[unused238]
[unused239]
[unused240]
[unused241]
[unused242]
[unused243]
[unused244]
[unused245]
[unused246]
[unused247]
[unused248]
[unused249]
[unused250]
[unused251]
[unused252]
[unused253]
[unused254]
[unused255]
[unused256]
[unused257]
[unused258]
[unused259]
[unused260]
[unused261]
[unused262]
[unused263]
[unused264]
[unused265]
[unused266]
[unused267]
[unused268]
[unused269]
[unused270]
[unused271]
[unused272]
[unused273]
[unused274]
[unused275]
[unused276]
[unused277]
[unused278]
[unused279]
[unused280]
[unused281]
[unused282]
[unused283]
[unused284]
[unused285]
[unused286]
[unused287]
[unused288]
[unused289]
[unused290]
[unused291]
[unused292]
[unused293]
[unused294]
[unused295]
[unused296]
[unused297]
[unused298]
[unused299]
[unused300]
[unused301]
[unused302]
[unused303]
[unused304]
[unused305]
[unused306]
[unused307]
[unused308]
[unused309]
[unused310]
[unused311]
[unused312]
[unused313]
[unused314]
[unused315]
[unused316]
[unused317]
[unused318]
[unused319]
[unused320]
[unused321]
[unused322]
[unused323]
[unused324]
[unused325]
[unused326]
[unused327]
[unused328]
[unused329]
[unused330]
[unused331]
[unused332]
[unused333]
[unused334]
[unused335]
[unused336]
[unused337]
[unused338]
[unused339]
[unused340]
[unused341]
[unused342]
[unused343]
[unused344]
[unused345]
[unused346]
[unused347]
[unused348]
[unused349]
[unused350]
[unused351]
[unused352]
[unused353]
[unused354]
[unused355]
[unused356]
[unused357]
[unused358]
[unused359]
[unused360]
[unused361]
[unused362]
[unused363]
[unused364]
[unused365]
[unused366]
[unused367]
[unused368]
[unused369]
[unused370]
[unused371]
[unused372]
[unused373]
[unused374]
[unused375]
[unused376]
[unused377]
[unused378]
[unused379]
[unused380]
[unused381]
[unused382]
[unused383]
[unused384]
[unused385]
[unused386]
[unused387]
[unused388]
[unused389]
[unused390]
[unused391]
[unused392]
[unused393]
[unused394]
[unused395]
[unused396]
[unused397]
[unused398]
[unused399]
[unused400]
[unused401]
[unused402]
[unused403]
[unused404]
[unused405]
[unused406]
[unused407]
[unused408]
[unused409]
[unused410]
[unused411]
[unused412]
[unused413]
[unused414]
[unused415]
[unused416]
[unused417]
[unused418]
[unused419]
[unused420]
[unused421]
[unused422]
[unused423]
[unused424]
[unused425]
[unused426]
[unused427]
[unused428]
[unused429]
[unused430]
[unused431]
[unused432]
[unused433]
[unused434]
[unused435]
[unused436]
[unused437]
[unused438]
[unused439]
[unused440]
[unused441]
[unused442]
[unused443]
[unused444]
[unused445]
[unused446]
[unused447]
[unused448]
[unused449]
[unused450]
[unused451]
[unused452]
[unused453]
[unused454]
[unused455]
[unused456]
[unused457]
[unused458]
[unused459]
[unused460]
[unused461]
[unused462]
[unused463]
[unused464]
[unused465]
[unused466]
[unused467]
[unused468]
[unused469]
[unused470]
[unused471]
[unused472]
[unused473]
[unused474]
[unused475]
[unused476]
[unused477]
[unused478]
[unused479]
[unused480]
[unused481]
[unused482]
[unused483]
[unused484]
[unused485]
[unused486]
[unused487]
[unused488]
[unused489]
[unused490]
[unused491]
[unused492]
[unused493]
[unused494]
[unused495]
[unused496]
[unused497]
[unused498]
[unused499]
이
.
다
는
지
고
하
가
에
을
한
로
의
도
기
은
서
들
사
대
라
아
나
인
리
자
해
어
시
정
를
,
국
수
으
니
만
그
있
게
보
면
부
일
0
전
주
1
제
?
장
원
거
상
스
문
과
구
2
했
안
것
데
야
조
당
적
민
무
마
요
성
공
신
진
선
ㅋ
중
동
경
여
개
우
소
세
위
말
비
내
미
치
재
모
없
되
네
유
할
생
화
오
회
와
!
간
까
려
관
'
~
통
3
년
금
계
명
등
업
드
건
러
단
연
실
교
트
용
5
저
발
었
산
)
(
더
때
냐
분
방
바
터
차
영
며
체
입
행
히
4
된
역
본
반
운
"
학
심
같
권
식
않
물
력
남
각
불
람
난
못
임
르
작
후
파
감
노
겠
음
런
래
강
던
타
처
직
6
현
9
속
받
법
출
청
8
두
레
결
최
매
표
호
박
달
월
양
7
살
합
준
점
예
집
천
프
너
버
설
배
번
알
북
많
판
잘
피
근
종
질
외
포
격
김
크
능
올
추
군
령
함
급
“
’
”
‘
걸
았
키
디
태
든
애
새
른
언
참
좋
왜
울
망
먹
형
습
짜
검
투
O
%
린
따
석
약
열
초
친
날
증
또
론
·
쓰
평
카
특
편
승
목
확
토
코
독
누
총
럼
테
맞
온
복
환
줄
품
책
절
글
변
록
활
-
란
찰
렇
광
벌
억
병
좀
랑
죽
돌
였
황
료
루
돈
족
S
빨
씨
길
뭐
e
막
악
놈
잡
워
순
술
창
머
죄
끼
봐
쳐
져
느
손
님
담
육
좌
넘
별
베
C
패
앞
필
됐
향
얼
련
듯
될
항
앙
짓
희
철
돼
갈
a
탄
티
냥
빠
범
협
o
A
극
메
송
험
삼
폭
놓
충
닌
존
규
늘
겨
T
름
브
뒤
힘
께
졌
택
축
취
백
i
싶
t
답
긴
밝
량
접
립
눈
n
채
응
B
몰
곳
높
플
욕
혜
r
폐
색
럽
완
쟁
쪽
류
싸
즈
움
ㅎ
깨
왔
견
엔
율
먼
착
끝
허
M
K
핵
s
페
P
득
탈
락
슨
:
혼
ㅡ
/
I
림
켜
퍼
G
녀
엄
볼
댓
팔
m
찬
웃
D
논
골
렸
침
획
익
큰
ㅉ
커
혀
죠
L
찾
효
떨
뿐
E
및
홍
밀
징
혁
윤
혔
팀
떠
봉
귀
뉴
케
농
l
례
틀
났
써
션
릴
^
갱
굴
ㆍ
밖
갖
클
왕
측
블
퇴
떻
객
꾸
휴
c
ㅠ
염
뭔
센
믿
갔
N
몇
찍
F
압
잖
큼
꼴
갑
랜
똑
꺼
놀
층
붙
액
째
덕
츠
줘
슬
풀
률
혹
훈
얘
싫
딱
곡
십
끌
V
캐
둘
찌
쇼
괴
R
h
융
뽑
똥
암
d
텐
풍
숨
꼬
u
척
g
롯
숙
…
념
낸
k
뇌
잠
균
값
밥
쿠
빼
팅
첫
뻔
봤
겁
떤
몸
헌
욱
옥
폰
딸
맨
궁
낮
잔
즌
씩
랄
쉬
ㅅ
탓
p
핑
널
닥
쉽
템
듣
넣
즘
얻
략
킬
탁
꼭
슈
킨
낙
뜻
털
쓸
뭘
솔
끄
맛
H
냈
칠
릭
젠
쳤
=
짱
땅
칭
뛰
흥
엘
럴
뜨
멍
;
링
U
램
랐
엇
셔
빈
맹
턴
맡
쌍
y
팬
휘
ㅈ
걱
콘
겼
혐
ㅜ
빌
b
곤
졸
납
벤
셨
혈
섭
벽
>
w
헤
롭
힌
홈
+
벨
X
ㅇ
룹
W
쓴
꾼
컨
덜
ㄴ
넷
둥
짝
킹
멀
v
<
픽
텔
렴
즉
줬
쁜
잇
둔
ㄱ
렵
딩
즐
쩌
깝
칼
춘
델
촉
튼
웠
챙
꿈
웅
짐
삶
멸
웨
딴
맘
*
흔
탕
ㅂ
팩
젊
첩
읽
묻
몬
뢰
쥐
싱
f
깔
J
곧
뤄
랍
슷
앉
썩
뀌
푸
맥
ㄷ
ㄹ
낼
흐
춰
x
므
섬
녹
빵
쇄
뿌
됨
괜
벗
닐
촌
깐
넌
렌
컬
촛
홀
△
펼
빛
닝
칙
탑
뒷
찮
잃
늦
겹
#
밤
흘
꽃
빙
펀
켰
묵
몽
쯤
캠
콜
콩
첨
쁘
랬
묘
뷰
삭
섰
롱
픈
끔
씬
닭
됩
헛
밑
옷
흡
흑
떼
훨
낌
숭
랙
슴
쩝
컴
끊
옆
멋
딜
닫
릇
낫
떡
뮤
컵
싼
봄
좃
엉
겪
땐
럭
튜
폴
셈
힐
롤
탐
켓
꼽
덩
헬
옛
샤
퀴
냉
깊
껴
깜
꿔
춤
&
멘
줌
놔
잊
덤
옹
낳
쩔
렬
냄
렉
㎡
싹
뜯
굳
옮
걷
렀
잉
쌓
ㄲ
빚
둑
겐
겟
Y
릿
∼
`
뭉
갤
칸
덮
껏
넓
붕
벼
ㅣ
햇
셀
맙
닉
씀
멤
걍
옳
끈
펴
덧
젤
앗
겸
콤
짖
톤
꼼
끗
놨
튀
쌀
꿀
쏟
낭
◆
펜
껄
큐
촬
봅
랭
녕
핀
닙
긋
읍
랫
▲
쏘
흉
앤
썼
쿨
듬
늙
닛
빅
뷔
젝
윈
둬
엑
긍
룡
탱
폼
빡
퓨
똘
쇠
쾌
짧
쯧
셋
앨
눠
꽤
´
밍
밟
봇
렁
톡
헐
틴
땜
쑈
쪼
챔
j
톱
숫
텍
듀
옵
듭
낀
룩
띄
떳
→
덴
훼
륙
엽
맺
틱
밴
횡
엠
돕
훌
셜
]
넥
댄
[
앱
팽
삽
ㅁ
씹
푼
낄
㎞
쉐
짤
깡
쉴
굉
뱅
룬
륜
뼈
뚜
멈
씌
◇
컷
벙
쫓
섹
Q
_
엿
펙
곽
■
릉
닮
믹
냅
섯
뚫
뚱
윗
좁
갓
뺏
ㅆ
핸
룰
쿄
괄
○
돋
앵
녁
ㅐ
낯
Z
숲
밭
눌
맵
륭
ㅊ
틸
룸
찔
묶
랩
틈
왠
뿔
왼
z
뻥
뜬
댕
옴
쩍
늠
섞
삐
뚝
쟤
밸
턱
딘
쩡
잣
깃
눔
팍
갚
뒀
팡
웬
찢
셉
븐
쫄
몫
웹
멜
겉
땡
쏠
쫌
좆
훠
뇬
샷
픔
닷
쥬
뽕
퀘
궤
썬
벅
곱
뀐
땀
곰
됬
녔
뱉
왈
줍
흠
띠
쭉
굶
덱
젓
깎
빗
엮
뉘
찐
캔
@
릎
랏
펑
굽
꼰
셰
붉
샘
뻘
늬
퉤
얀
쏴
렷
샌
엎
췄
굿
ㅏ
쎄
꼈
쑤
🐕
믄
렛
캡
뻐
뜩
콧
뇨
뱃
빤
겄
톨
궐
랴
헨
럿
닦
젖
컸
껍
붓
롬
샀
낚
넉
닿
꺾
깽
꽂
팝
밌
핏
펠
씻
꽁
켄
뱀
둠
릅
껀
훔
칫
빽
볍
뽀
쿼
탠
텅
칩
빕
넨
흙
텀
쁨
슥
킥
쌩
흰
끓
핫
멕
횟
뜰
윙
웰
}
팎
깍
얹
킷
솟
곁
휩
퉁
《
쨌
쯔
킴
잦
▷
뭣
ㅌ
ㅗ
켈
갇
윌
맑
궈
▶
툭
걔
㈜
뒈
잭
몹
짚
댐
툰
》
댁
쩐
쑥
썰
캬
쿵
꽉
㎏
볶
슛
쌈
쭈
앓
잎
댈
삥
씁
쫒
톰
뤘
엣
얄
꿨
늑
쟈
렐
펄
뭇
넬
●
빔
낱
―
숍
딪
갯
솜
️
첼
딨
햄
쩜
렘
꿇
늄
뎅
퀄
왓
q
훗
뿜
탔
잼
콕
펌
떵
휠
ㅍ
샵
툼
캄
짠
뀔
돔
밋
댔
퓰
찜
헝
숟
×
텨
얽
힙
푹
햐
쉰
붐
꿰
뻗
캘
삿
넹
샛
♥
킵
㎝
꺄
★
쏙
갸
홧
밉
퀸
풋
깥
꾀
「
」
쿡
츄
쌔
|
긁
뺀
굵
뺨
뎌
²
짬
뵈
ｍ
ㅓ
렙
＂
팟
덥
폄
쏜
꾹
툴
윽
딧
펫
헷
귄
짙
얇
낡
멧
👍
뻑
뺑
뭄
떴
뽐
섀
띨
껑
뮬
슐
쉼
뚤
벳
깁
듈
탯
㎜
텃
얌
껌
흩
졋
챌
뜸
％
퍽
븅
풉
셧
륨
❤
ー
\
쾅
ㅔ
탭
맷
겔
썸
괘
찼
☆
돠
쉑
싣
💙
핍
엥
봣
탬
ㄸ
떄
뛴
팜
ㅕ
앰
깟
돗
벡
챈
・
ℓ
썪
꿍
벚
딕
훅
꽈
훤
얍
찝
젼
끽
짭
줏
팁
꿋
꺽
랖
텝
썅
챠
쒸
맏
귤
샐
볕
깅
퉷
 
뤼
$
샹
꽝
뎀
홉
쥔
띈
뺄
슘
딛
둡
넼
눕
솥
찡
①
냔
좇
샴
뉜
촘
핥
뮌
튬
땠
쵸
됫
엌
겜
뭡
첸
줫
헉
뺐
딥
쿤
{
팠
뮈
늪
캣
튕
죗
ㅃ
😡
ン
옐
췌
찿
뛸
눴
팰
갭
뎃
썻
쁠
혓
②
뽄
콥
콰
챕
씽
쟎
웍
굼
싯
숴
팥
댜
칵
즙
옌
샅
쎈
넛
쪄
셸
곶
맴
띵
쌤
갠
얕
폈
🐦
춥
륵
룻
잽
캉
걀
🇰
웜
왤
뺌
↑
겡
섣
탤
깬
됀
숱
큘
썹
귓
퐁
『
』
웁
↓
쌌
띤
펭
멱
랗
짊
㎢
빴
쨋
쐈
뼛
쌉
컥
썽
〉
캥
쐐
씸
됏
딤
〈
졷
뭍
꿉
쭝
궂
밧
엊
퀵
ㅑ
샬
🐶
욧
※
젯
꿎
◈
컫
랠
🇵
퇘
헥
욘
샠
횃
겻
넋
㎥
℃
Ⅱ
👏
겅
•
팸
찻
뾰
쳣
쫙
갉
쫑
＝
믈
③
▼
닳
イ
숩
샊
욜
팻
땄
깠
앴
】
㏊
ル
【
쬐
퉈
ㅄ
픕
밈
잤
ス
닼
벵
․
뻣
🇷
늉
몆
텟
괭
눅
□
룽
웩
왁
홋
쓱
괌
죤
덫
숏
넸
읊
빳
췬
젬
잿
찹
넝
녘
춧
콱
갛
뿍
뒹
띔
ラ
듦
㎾
켠
а
덟
냇
뗀
튈
뇽
잰
💜
켐
｜
←
🤣
츤
튠
츰
ト
쌕
깰
쨩
쉘
킈
셐
튄
🤬
얏
숯
쑨
♪
얗
촐
ｔ
퀀
맣
빻
텼
갬
リ
긔
뢀
🇯
꺠
😱
о
넵
낍
ッ
🖕
뵙
앜
삘
멩
쭐
챘
㎎
㎖
뗄
탰
컹
‧
녜
캅
😠
큽
ク
옘
됌
냠
쥑
✔
🏻
꼿
∙
냨
셍
왑
넙
쫘
ア
뫼
텁
틋
튿
톈
웟
갰
쭵
빰
↔
い
궜
뮐
쌰
욤
캇
뻤
몄
깼
젔
얜
뤠
짰
😂
짘
훑
윕
핌
꽥
－
е
Ⅰ
뀜
괸
핼
④
и
찟
끠
ん
ㅛ
👎
챗
샨
뗐
ド
듸
🔥
낑
㎿
볐
놧
솎
숀
쫀
쳇
앎
н
▽
±
😁
윅
쫏
켯
슌
│
곪
🔴
먄
쥘
뎈
맬
붇
촟
쥰
맟
㎍
뿅
캭
옅
슝
끙
씰
읎
쐬
폿
롸
α
р
옇
좉
펩
휼
シ
쟌
밷
💕
앖
🐖
‍
뷸
–
쥴
쯪
뎁
쇳
─
뎠
쨍
앳
틔
❌
❗
🐷
힝
넴
윳
낵
댑
눼
🙏
뼉
롄
즤
싀
レ
잏
マ
훙
튭
헹
엾
タ
퀼
켤
ロ
겋
😍
뮨
둣
フ
！
밣
т
カ
с
땟
숄
쿰
껐
긱
뗏
귝
↘
셴
삑
곸
읏
콴
쒜
휙
첬
첵
탉
⑤
う
윔
な
☎
꿩
밎
슙
💚
렝
땔
ジ
돛
っ
딲
툽
놉
돤
셩
뭥
깻
셌
잌
キ
띁
쉨
숑
헴
졍
핧
먀
쵝
쟝
😤
헙
し
촞
​
죵
é
☞
킁
뱌
랔
겆
Ⅲ
짢
튤
か
в
쁩
얔
샥
👹
깉
뺴
톳
뇸
뽁
욬
햅
웡
л
♡
쨔
㏄
솨
겧
됄
몃
촨
🎶
😎
몀
：
휜
줜
の
バ
ィ
к
텄
툇
옻
쉔
⊙
힉
봬
횽
졔
힛
괞
た
👉
넜
슭
쭤
쎅
큭
😈
女
ウ
팼
ｇ
솝
쨉
즁
땃
맸
멎
윷
짹
뻬
쉿
オ
😭
놋
눙
읺
죈
°
あ
벋
🏿
죳
⭕
펍
😆
ま
😄
엡
뷴
촤
ナ
퀑
쬬
쩨
젭
쏭
🇨
귈
쇅
닻
🤗
윾
🇳
낰
츨
꼐
츳
퐈
덯
햏
옭
쓉
켕
ブ
テ
チ
뿡
젋
サ
쳬
コ
듐
찧
グ
こ
💖
🔊
♣
‥
㎒
と
［
닠
츈
믜
💩
잴
ャ
д
😊
쑹
싄
꼇
쌘
り
됴
く
ム
굣
ュ
뽈
エ
퇫
좔
챤
쒀
쮸
る
．
↙
늣
콸
♂
💛
ミ
펐
μ
ㅢ
쌋
デ
갗
볏
뜀
ち
👊
‼
쪘
ら
😘
깄
⅓
ダ
㎓
ガ
—
뮴
곗
〃
텡
プ
м
펨
❓
₂
　
껭
쾰
お
뙤
곘
헀
뵤
랰
듄
～
㈔
핳
횐
몾
챦
켔
パ
メ
쥭
츙
さ
⑥
♀
믓
〰
☺
쿱
땋
멓
햔
き
⅔
섺
↗
녓
す
ハ
🤔
ニ
뵐
🇺
삔
윰
李
◎
뀝
묜
쟨
빋
땨
🤮
듵
🐒
у
엏
밨
쭘
랼
셤
🌶
쾨
🇸
ü
뱁
뵹
′
갘
😀
듕
줴
옜
✊
💥
퓌
햬
쯥
🎗
앟
룐
샜
だ
は
곯
좨
й
➡
＋
😮
뽤
😃
뎨
팹
金
で
も
쉈
ェ
죙
땍
욥
뇰
눗
├
👽
뫄
て
ズ
켁
쫩
쉒
뀨
닺
샏
😝
떰
칡
뽜
퓸
꿘
띌
뺠
☠
、
，
뼘
싢
삯
밬
㎉
둿
쉭
㎛
👥
⑦
🔞
🔵
モ
ゃ
앚
씝
に
💢
💗
웸
멉
🌋
떽
쥤
쉥
♬
🤩
똬
🎉
я
꽹
좡
뭏
묭
푯
릐
よ
멥
🌸
쳔
ы
즛
믐
짼
쒝
댸
ビ
먕
뙈
퍄
🐀
읻
끕
ㅖ
ョ
젛
つ
🎵
좟
챵
쭙
み
￦
쓔
？
핡
쨰
븍
짆
ワ
싑
텋
👤
엷
ネ
앂
헸
햤
ァ
🏼
☏
や
믾
＆
†
┌
샙
🌟
ا
칀
뎐
휑
ノ
뗘
좝
г
쪕
＜
뼝
랸
＞
밞
짴
ö
⋯
れ
퍠
ツ
렿
궄
✨
😅
п
푠
ゴ
륀
が
👿
됍
홰
ο
á
™
뱔
섴
ボ
봘
じ
］
ь
냑
볜
싴
わ
읜
ä
뉸
볌
갹
😉
톄
🐔
뗑
С
놐
헵
띡
б
。
꿏
🚨
슼
🥰
㏈
걩
🤪
ᆞ
뵌
햌
쉣
솤
⭐
💓
묠
틍
퉜
😜
듷
붑
냘
겍
❄
븡
젹
옶
뮛
🤭
ね
잆
セ
✌
꾜
똔
з
쎌
쏫
젱
읔
햝
됭
샾
ㅟ
뭬
솓
ピ
쐇
꺅
쫍
죧
핬
˝
궹
댱
💀
핰
졎
딫
떫
줒
옄
ヴ
®
빱
👌
옙
읭
슉
ı
쌖
め
댘
삵
ν
⁉
깆
묽
섁
そ
ど
섶
숸
え
年
꿧
〓
딹
❣
ケ
돨
쏱
멊
🚫
꽐
🔪
👈
씐
🕊
뤡
뉠
줭
캍
듁
😗
걘
탸
쾡
얺
닢
🚀
봨
깞
🕯
👺
쳥
쯩
줮
샆
즹
ろ
ㅒ
켸
삻
샋
쌨
횔
ⓒ
쎼
β
껫
㎸
넒
죌
긕
캤
ч
벰
ザ
Ⅳ
뉨
똭
홑
ソ
윘
け
ギ
㎚
븨
엤
좄
싷
냣
🍑
뜽
읗
ふ
τ
♨
쇤
▣
ベ
ل
왱
맀
💞
ょ
💣
곀
ρ
㎘
😷
³
챡
셱
ヒ
켑
렜
ポ
욹
⑧
냬
뜹
ς
ㅘ
젇
🐮
😬
∞
･
ι
🌹
쑵
봥
🧡
쮜
샡
늗
€
🌺
盧
빩
◀
💝
뱡
ォ
뷩
🐯
뺍
ó
늕
춍
ㄳ
⑨
쒼
🏽
겊
뿟
횬
똠
짦
茶
닯
😰
긑
햑
뤽
헣
좍
씅
흄
짯
🐵
ε
줗
굻
〜
햘
😢
쳉
깤
낟
뺘
핱
섕
푀
맗
뜷
샣
뷱
휀
😥
닏
😛
í
겝
）
ば
흣
칰
쉅
­
⚠
♠
옺
К
촹
ホ
ヤ
🔫
웽
뱐
쟀
😨
÷
썌
М
놰
핮
짇
갼
왘
ひ
걑
끋
😋
왐
챨
ə
엨
꙼
▨
볘
줠
굥
뗴
🎈
ш
솽
삣
🚴
👴
캑
А
💪
（
뵨
쥥
쟉
츌
싨
읇
껜
숼
왝
붸
셕
뛔
В
ゲ
읿
쏨
믁
😣
﻿
졀
럐
몌
켬
🐈
돝
🤯
묀
앍
П
돚
쏵
ㅞ
🐙
👅
⛔
せ
잨
벞
♦
녈
먈
х
촣
˚
쎔
죨
죴
잗
홱
ā
죹
✅
λ
쿈
릏
깸
떱
뭅
톼
뷜
욌
😑
뚯
얐
👨
짒
뗌
뱄
떈
컄
ペ
믕
멏
Р
튐
😧
씼
◾
🦅
띱
팃
π
老
닶
＇
ⓐ
樂
／
뺃
쿸
붜
뢔
🙆
🗣
⚡
쫗
킼
놯
븽
뚠
§
Φ
✋
쭌
└
γ
촙
ر
🐽
핣
ω
겤
ご
큅
읹
ゆ
م
핟
📣
🤦
셓
꿜
묹
쏩
킄
쎠
💐
🐩
쇆
퐝
쎘
촥
☝
ن
꾿
👣
😵
κ
뻇
셑
쎀
뉩
σ
≫
굇
귁
ゅ
퍈
븥
잫
죷
롷
읕
좈
ي
뤈
뤌
굔
앝
Ω
ユ
ç
죕
벹
쨈
쇗
멨
귐
깢
꾐
🍎
죡
욍
🥶
퐉
🤷
😚
궃
👩
볗
켱
⑩
쾈
솅
뜁
춴
큿
쀼
닜
봊
뎡
쇽
럄
뭤
꽌
ж
≤
픠
쬭
떙
è
슾
뙨
궉
맜
퐐
🙋
갂
헿
뻡
🐓
🌈
ː
깈
Н
🥳
😇
귿
츼
＃
맆
롹
ㅚ
🐅
ㅝ
딋
ず
밪
읖
샇
≪
퀭
쑬
찣
븀
🎊
뱍
몪
🐥
쏼
췃
빢
땁
쪈
쥣
눟
΄
🌙
툥
늫
맄
🦜
뎬
렠
쟙
🙌
졓
읃
젙
쐑
킅
꺵
💟
칮
쫭
눞
Ⓐ
곈
💘
닞
😩
ㄺ
랒
⇒
닽
딍
읆
و
긷
잋
륄
Д
묫
η
뜾
벛
맇
👄
Г
짗
▪
쟐
💰
믽
쳄
겈
틑
㎐
밢
깩
😐
핝
맠
돟
잪
갲
룔
슁
쪙
☢
ц
붤
줙
솩
😙
́
흭
ほ
ɪ
ぐ
뫃
옼
И
뻴
숵
쎆
🏾
Б
😲
ぶ
쒞
첮
덪
낏
″
〔
앋
㏃
〕
붘
짔
ヨ
즨
☀
쩟
얶
볓
🍀
떔
👑
ⓑ
👧
📢
칬
읁
♯
쌬
ゼ
싈
↖
🙄
벧
돡
ぁ
욀
🍒
㎗
늧
끍
�
젏
얨
ゾ
붱
꿴
Т
궸
뵜
د
몯
む
퉸
🖤
댖
껬
ヘ
넖
맢
О
😔
헠
얖
ぼ
잍
쥼
😫
죸
랃
듲
룀
👋
댠
ί
뎄
뽂
🔨
😖
🦶
🛑
ю
ب
맂
웤
튓
쯕
뷁
🚩
🐰
ş
█
껒
훓
잟
챰
🐑
쇡
햣
힣
묙
읶
ㅙ
곙
ά
º
몿
럈
퓽
훕
흴
θ
😌
뫈
몈
쟛
폔
à
Ⅶ
쪾
😏
び
쿳
빍
쇜
🐂
럾
쳑
긇
찎
♤
솰
⃣
뻰
뫠
쌂
즥
🔹
ё
㎠
を
υ
옉
햡
＾
뺵
떢
🌷
좢
−
뇐
🐤
🤢
픙
덖
짛
졘
❎
넠
ú
촵
줱
펏
㎃
얒
뀠
뙇
へ
탹
≥
ß
â
‪
훽
ˈ
Ⅴ
벱
섥
┃
숖
♭
🍾
옿
젗
휭
뇜
홥
꿱
볻
댤
🦀
퍅
늡
욷
̈
쑴
섦
먾
솬
쳘
뭌
퇄
늨
얷
뉼
£
쌧
씞
💋
짲
뽝
√
궨
🙊
읅
ゥ
뢴
🙈
і
텬
틉
눜
쎜
긎
잚
뭠
뵀
Δ
냌
묏
ぎ
Ⅵ
셥
ⓓ
ī
🇹
읋
👀
🌜
✳
녠
㏜
쪅
💦
👟
휸
롴
껸
＊
눤
밦
듼
앏
э
팤
똣
춋
δ
퍙
🗡
🍆
끅
녤
æ
싰
ō
싲
🇼
뮹
🌛
＿
쎗
Σ
옯
쨀
햊
뮙
겂
🐁
뷘
ざ
χ
뺕
ぱ
숮
싮
É
꽅
엪
썁
묄
듫
붂
햿
꾾
렣
🌻
⑮
げ
⑫
뚕
몐
낔
쨓
ê
퇬
쩠
웻
폽
깂
슆
곷
훍
🔖
맍
폇
휄
롼
홤
뒬
궝
젰
싞
둰
긒
댯
돜
썡
죰
👻
뼤
샄
캌
س
쁀
랳
궛
🐍
둗
ñ
즞
🌼
🙅
싳
닾
쵀
옰
쨘
풰
봔
뻠
꽊
🔸
不
‬
홓
🎤
푱
휏
쟜
섲
쁑
쒔
쒹
쯫
🐣
밯
삷
⑪
😒
∀
큥
😞
챃
⋅
◯
ᄒ
뼌
윀
🐎
봌
＠
쾍
🤑
🇭
👦
₩
굘
≒
쪌
갮
곺
🙉
곬
쉡
뚸
햠
😻
먜
렼
짋
섘
ø
쉌
풂
Я
휨
붏
퍌
젴
큔
켭
½
ه
쌥
둉
ό
뱸
Л
뒸
☣
맊
퉛
솼
🎃
ɛ
흫
죻
귾
쒴
됑
👞
긐
곹
🤨
꿑
퉥
😓
젆
싦
🌩
뭨
듥
š
♧
뷍
땝
얙
쳅
긂
勞
텻
녛
뻿
У
🙂
퍀
㎑
ğ
🦊
헜
봑
긌
꼳
롲
😳
츔
늟
똫
ぇ
쩧
쏀
섐
◦
З
읠
챱
껼
좊
ʃ
ð
쯍
띰
돴
땈
맻
촴
웈
줃
긧
틁
🙇
쭛
섻
◁
섮
욋
✂
ë
‎
곌
쵼
☘
낲
⬛
걈
혠
툐
굷
껨
ぷ
얃
🍉
͡
붛
🖐
🍊
졉
🍓
🌿
훝
🦴
큉
⬆
뒨
뢍
뒺
놘
즬
㎽
먿
잩
ة
ت
💫
뿝
큠
🐾
놌
쑝
싡
ぽ
ŋ
ร
겎
읉
잀
깹
싁
볔
뚀
쓩
닸
🧟
젿
Λ
쫐
줸
쬔
봍
췐
뉵
몼
밐
멌
줟
🥊
ぺ
י
핻
쟞
릳
Ø
ぜ
읫
넫
왛
🍭
㉠
ぬ
쐨
📛
퐌
뤗
꾤
겢
쳫
🦍
🔺
됸
ヌ
됙
웛
🐗
옫
쓥
톺
🐭
Ⅹ
２
꿁
삮
빧
좠
욯
귱
햟
✴
ی
뎔
갵
옸
🤐
뺒
옪
큄
겯
ł
젅
씦
า
렂
넿
럇
🥇
쐴
꼅
앸
켝
뵘
〇
샎
렆
😕
쳡
욪
껰
꺌
싺
덛
ぞ
🎀
넗
옃
꼉
έ
둇
샑
풔
빆
댇
짪
샂
ा
씯
📌
똒
튱
돵
넚
엳
룍
뱓
폠
ꉂ
龍
끚
쩄
ㄻ
뢈
쳌
붠
べ
🐱
쐉
띕
냤
·
믇
ã
쒯
💸
ح
뻉
벍
앀
켘
셯
쬠
춈
갢
꾁
🐴
쎴
쎤
㎟
ع
볭
븁
됗
➖
괙
붖
쎕
넢
쌱
😴
Ａ
졵
둟
🐧
퀜
넺
얂
웝
괵
ύ
🏃
쾀
좐
줔
릍
🧢
졈
먁
춉
눍
ē
읒
ɔ
늼
Ü
ô
뒛
룟
궘
😪
น
뱜
쨜
🎌
싥
넑
Α
쥿
≠
щ
🥺
봫
👇
훵
🚢
꺙
븜
햋
옂
💃
싕
쭁
🐺
잛
랲
💯
㉡
ぴ

🔮
됒
◐
쪗
＼
💨
핲
›
봗
떧
녆
１
죱
뽚
🤤
앃
삳
뒝
🔔
컽
헁
쥠
슺
컼
⬇
훻
ك
‹
Ö
궍
🐆
엃
ぃ
ش
싵
💎
곃
🍏
꿂
뫙
욺
３
풒
Е
졑
춣
뱆
엍
퀙
룜
¶
ו
🎆
뭑
뷀
닪
㏏
Х
🐸
샸
ф
낃
푈
ū
뺙
ヲ
핢
돞
갴
섿
»
뵁
섂
씺
낞
롁
섵
Ф
갷
웑
컁
씃
쇙
낂
먆
🦇
틐
▒
딬
🎁
팓
ή
잧
🎼
돰
홯
č
뭊
앛
🍁
퉵
쩦
렄
먗
곻
븝
칞
©
㎧
닣
🍖
🐇
뭰
짅
뤂
븟
혤
걌
🏮
읐
ق
햛
췽
🍌
닟
🔑
🦉
쫃
줳
괼
✖
즣
끛
굯
밠
찯
흝
왹
힜
🤫
φ
쨎
🤧
ั
ա
쎾
밮

¥
폅
럲
🎯
🎄
Π
솈
뿕
뽱
벴
🐟
퓡
«
롶
🐛
🦝
ă
ה
흽
쇟
ა
ﾞ
💔
뀄
¼
ɕ
뮥
봏
쬽
🐏
늰
꼮
อ
졐
엦
첯
ㅤ
쬘
푄
ف
쥡
쫴
곂
롣
쐰
🌎
🍳
릔
탼
🌀
췁
욿
🤡
턔
ʊ
뀬
्
⑬
ʒ
☹
👆
짏
🍈
폑
뾱
짫
윱
🌱
🍃
🦮
ʰ
껵
늩
텽
긘
퇸
젘
힁
딀
🆘
ל
괏
깋
⚫
뻭
땩
졳
숰
்
줕
얠
ค
づ
쭥
짞
ì
웧
댙
걲
멬
땸
ج
벆
빝
캈
🕺
왚
☑
솀
ก
쌜
넎
ъ
쨥
갃
얾
🥵
읮
🌏
씳
뗍
탙
땽
💲
▮
ぅ
뱨
쨕
죔
롐
💤
🦠
ʌ
뗳
굮
삲
뉍
㉯
ᆡ
Κ
👁
꾕
쎙
챴
랂
멵
Э
ᆯ
캰
닊
뗠
ר
🍞
쩃
뜌
솦
츅
🌞
잕
췅
옝
켙
쎃
숌
🤛
펵
솁
돱
앆
뫌
㎦
🤕
쓤
믠
갣
챽
㉢
ი
↻
췡
핞
웂
쒰
줩
늅
샞
꿸
뇟
덞
륻
놬
슽
👼
뀡
İ
쩢
▸
됻
ɡ
밓
럤
💊

옽
뺜
🔉
낗
㎤
◉
릫
홬
읙
🧠
⛄
̆
픗
🧐
굑
듴
몴
🌊
롈
💏
َ
욛
앢
🤓
뢸
ɑ
å
쟂
💒
떯
💁
냡
챳
쏳
푝
휫
푤
î
듧
ɐ
뼁
쯘
쐽
🔇
Ч
א
ᄀ
뭫
뎆
ม
聯
Ι
뚣
쮠
㎈
र
✓
솄
먺
큇
핤
녑
졻
🥁
🤴
끤
텰
캪
툿
쎡
เ
µ
Ç
¡
쵤
츱
횅
맽
듳
⚰
🤟
👲
괁
Ё
━
뼜
죅
👃
흌
🍼
뺸
졲
쬑
햭
쪚
맔
놜
😶
힠
밫
🍺
맼
밗
븰
🎅
⑭
Æ
엢
✝
Μ
딝
몱
핦
덨
ө
￥
쾐
🇱
🚶
몋
👮
뎟
얭
픅
😟
봡
댛
됮
셬
읨
솃
퓹
넽
앐
멐
궙
ℹ
읾
줓
ć
뗔
긓
🌑
ย
쀄
💄
횝
📍
🎺
섄
ү
้
Ш
삤
햩
핶
Ц
Ｃ
Χ
▩
젲
쐭
픵
럱
🌚
팛
🍄
슄
أ
웆
됵
쉉
썀
ﾟ
🦆
🤺
껙
㉮
ᆢ
ש
턍
🗝
⚖
̞
⬅
섷
퓔
🏴
🍅
샼
뎊
좦
🤚
🔲
풜
🙃
쯨
ɯ
👾
턀
즂
ᠠ
ี
왴
칲
눰
🇧
ώ
얫
팦
빸
캎

่
▴
🍜
👪
쮹
웋
땰
륌
뺭
랋
덬
돐
Ｅ
뱩
꼻
옾
셒
뚷
🤜
ù
걵
듪
땬
˙
랕
욨
줰
첝
ز
⑲
Ε
Ⅷ
🤒
톻
껶
렫
섓
ე
►
횻
✈
됔
뗗
븃
꽄
튑
🕷
딮
숔
ㅀ
🎷
🗽
씪
쥽
벟
🍇
Ⅸ
늴
릊
콌
⛏
펰
🇬
덷
ב
ﾉ
갞
қ
̃
ຈ
ᄃ
퀠
🧴
쟬
젎
🐉
낢
ว
Ｒ
ŏ
씾
ζ
☔
👶
흨
냦
췰
Ｔ
ง
禮
쓒
뱽
끾
빟
놥
㉣
엗
홛
똟
곅
럅
🗨
🏆
롳
Ｉ
댝
횄
뛧
뻩
퇀
렺
츕
쀍
뮝
쉇
쌴
🏓
삡
ᄅ
Γ
蘭
섳
ぉ
∇
🤸
빬
췟
붹
⚽
ï
😯
찷
찓
🍰
ᆫ
ž
Ｏ
웄
🐝
💵
덋
놎
춯
겓
쮝
🐄
윸
훳
０
몊
녂
퐄
벜
퇼
₃
ᄉ
뜅
귯
긿
췩
잂
ն
ᄆ
뗭
쒭
묾
졨
뇠
췍
튽
롓
🦲
ิ
㎣
劉
☭
갅
쟹
닚
̊
쭀
🔕
쫠
밇
꼹
똗
뜡
룁
췼
Á
풓
뚬
눨
얊
４
บ
¹
륍
칑
붊
💑
볹
긜
뀰
︎
칝
슫
릂
읓
콬
겇
셲
틘
엵
똴
랟
Ｓ
녅
븩
쭸
섈
ʻ
ɹ
₡
뗬
롔
릃
뎍
엯
🏈
샗
뗜
붃
굄
좂
궅
텤
먖
싿
🥀
ط
خ
뭈
뢱
쟘
잜
Ｘ
븉
덍
좽
줯
꾺
뫕
Τ
Ú
ด
ぢ
겱
탘
숳
엋
💌
볠
🥕
ᄂ
🧨
넞
뎋
읈
쇨
🍗
🎇
Ｄ
ท
🏅
섡
낝
밚
갆
Ж
∥
뵝
앁
귑
쳈
뮷
댚
🦋
Ｋ
놤
죚
🔻
궷
봙
뫘
핓
🍚
ʲ
ý
틅
쉙
챀
͜
칯
겣
뢐
쁭
괍
딷
듨
ě
혝
듩
🦁
잢
🌐
쳰
갏
뱝
슿
잙
붋
횩
깦
닩
릠
👵
얉
👂
냰
ไ
🎴
꿃
쉫
💧
킸
긩
５
œ
쬿
뺼
풑
댭
씮
👫
🦺
쳦
씉
🔽
븹
싪
놑
뙛
됼
왬
स
מ
त
📺
괬
🎂
낛
🗿
깓
🔆
뉭
줐
쉓
🤥
쭹
쌸
춌
☄
Θ

̯
្
🐜
댗
욮
썎
갋
🔶
🇻
됟
🌕
🙀
🐃
먐
🤘
눚
ｰ
😽
벸
홨
붗
샟
훱
삠
큨
뇔
▫
흗
Ｌ
ָ
⚭
펔
쪔
🎓
킫
벘
돳
벓
됰
㉰
⑴
ŭ
꿐
ㄶ
랓
됳
퓬
뇻
쯜
탇
챼
몡
ㆁ
क
Ｐ
⑵
ᅀ
쯰
젉
훚
쀅
녿
쵹
튁
🥦
ʔ
냼
❕
끘
💇
읰
🎸
🌰
뒵
🧚
눝
û
Ｂ
⏪
뇩
ת
ص
░
혖
얆
놂
⏰
ุ
ล
⑶
뚥
맒
🎋
힏
둴
먠
💡
뻈
빯
♩
뙜
먽
🍬
🍶
묷
첞
앲
蓮
¿
‰
ң
뼐
겷
뀟
굡
끜
뵬
뢉
앺
닁
븬
칟
ㅿ
ę
벝
끨
킝
🌍
껗
벎
멷
뵥
Ş
Ｍ
ξ
ո
릌
😦
읂
졏
틜
싐
폥
갊
뽓
홣
ห
ј
Ю
닲
앧
쐒
싓
🐻
ś
Β
̄
ʑ
ᅳ
令
얬
쫔
멫
힢
볎
뫀
쑌
🥖
찠
🔈
ส
┗
‏
ր
⌀
씷
뿠
왰
쏸
컈
ㄨ
췻
솧
☕
훯
헼
⚔
찱
픞
랅
➰
🎭
¤
न
͟
🐨
잒
빶
럳
뮜
햰
✍
∧
Š
툻
쎵
낧
껃
캼
냏
🔷
ी
깇
읩
룅
걺
윶
ᅡ
￡
핗
뢋
뀩
귬
뫁
뤔
썍
똨
팕
뒁
맫
⚾
쉠
켷
뒥
쿽
ى
큲
붅
걋
뙥
긤
웓
퐛
¨
〮
ｦ
쭞
렪
촏
얋
긺
꺔
윜
ต
엫
솢
핪
🩸
벖
🔼
ㄼ
ะ
ო
ń
뻄

６
ד
쉤
빘
띳
춫
꽇
흼
럻
꺜
댂
힞
쳨
㈏
რ
ò
฿
걉
🏭
땧
붚
텈
쵠
웒
냫
🌳
ʁ
⇔
∴
띃
껠
훡
냊
쎽
딯
깧
땤
쇵
🥑
놕
톹
몉
㎫
꿕
🌝
홐
뜱
🥥
ک
｣
म
͞
쏚
팧
롕
뇀
뇝
늒
쵱
🍻
㈎
Ο
ि
Υ
횰
삾
쟆
꺆
쳠
닡
끟
똡
탶
륿
뚧
걜
⬜
ⓟ
🇮
좜
엧
쁄
🇪
🍘
떦
읪
🐼
큣
ǎ

ե
쳧
🇲
짂
춪
뎝
팢
➕
첟
נ
ช
봟
꽦
듡
샕
휵
👬
ს
þ
▉
ِ
쉾
쁙
볂
넏
쩻
혛
늇
큡
ᠭ
ᄋ
ｳ
｢
륾
##.
##이
##는
##다
##을
##하
##고
##에
##은
##들
##가
##를
##,
##도
##의
##?
##으로
##한
##지
##에서
##로
##게
##면
##했
##과
##만
##어
##!
##적
##기
##었
##인
##아
##해
##네
##거
##되
##와
##년
##냐
##나
##할
##일
##)
##겠
##는데
##(
##지만
##라고
##라
아니
##며
##'
##까지
##던
사람
ㅋㅋ
국민
##에게
##자
##~
##”
##한다
##주
##다고
##니
##았
##야
##것
##면서
##’
##있
##다는
##"
##된
##서
##·
우리
##월
##보
나라
##라는
##부터
##시
한국
생각
일본
##원
##%
##이나
이런
##으면
##명
##보다
중국
때문
##대
한다
대통령
##성
##말
##해서
지금
정부
##화
##개
##여
문제
##~~
진짜
##때
##당
문재인
##억
##건
##나라
미국
##ㅋㅋ
##같
10
##해야
북한
##없
위해
만들
대한
##수
##인데
##-
##였
##된다
##번
##받
그냥
##습니다
다른
##씨
##권
조국
##는지
##처럼
경우
하나
##어서
##음
##님
##됐
경제
그렇
인간
##세요
##한테
이번
##네요
정치
가능
##라도
이제
대한민국
##해라
##안
그리고
사실
모르
함께
검찰
정도
국가
지역
필요
##2
##1
##는다
시작
모두
##듯
이후
통해
##다가
##함
지난
이상
많이
정말
너무
나오
민주당
가장
사용
##위
무슨
##사람
대표
##합니다
##입니다
정권
##차
자기
##죠
기사
##내
서울
다시
상황
##좀
##도록
##중
정신
세계
##임
##분
##/
##놈
그러
된다
##3
댓글
기업
아직
20
위한
지원
그런
##줄
모든
밝혔
##거나
##될
##시키
##길
##인지
##전
관련
##인가
##아서
##든
##엔
##니까
세금
수준
대해
조사
어디
##으며
시간
저런
의원
##걸
어떻
잘못
시장
특히
역시
##사
사회
##어야
경기
자신
##려고
국내
모습
계속
##으니
현재
여자
이게
##:
30
따라
##질
진행
이렇
아이
##다면
여기
##대로
사업
##요
가지
##놓
보이
##재앙
결국
##간
당신
지난해
제대로
쓰레기
바로
100
좌파
##시간
아닌
##상
##형
##돼
이유
결과
##먹
##어요
누가
##치
##5
##해도
소리
수사
다음
후보
##구나
##천
이미
##라며
제발
빨갱이
자유
언론
올해
최근
OOO
##조
12
##마
학생
대구
얼마나
처음
##4
기자
계획
##않
##한당
그러나
##시장
##호
누구
운영
##랑
해야
##달
지지
##란
중요
##빨
박근혜
##라면
상대
11
##살
경찰
##아야
당시
##회
이름
청와대
남자
사건
선거
관계자
기록
교육
##은데
이날
##짓
##기업
그럼
피해
또한
마음
##씩
세상
정책
없이
##데
물론
시민
##긴
가족
##군
공격
개발
어떤
##…
보여
##정부
다양
같이
주장
설명
##뿐
##어도
자리
공개
##오
이해
학교
예정
##더니
신천지
직접
자체
##신의
선수
이용
##정도
##째
대상
이야기
기술
역사
여성
어느
그래서
##한다고
투자
추가
보수
본인
##세
영화
교수
##정권
##싶
먼저
##쓰
##을까
따르
##나요
50
내용
마스크
##부
방송
평가
##이랑
이러
##지역
얘기
국회
##점
##국민
그만
힘들
수도
삼성
기준
게임
상태
##에선
능력
일반
아주
장관
결정
추진
근데
개인
기대
반대
관심
##아니
정상
가격
##마다
회사
발생
발표
##러
##경제
확인
최고
현실
참여
부모
##등
효과
탄핵
##곳
책임
보내
##제
대부분
조작
##밖에
감독
15
등장
인정
##트
일부
활동
##팀
코로나
해외
##조사
증가
이것
보인다
##가지
##는구나
##기에
전국
미래
준비
이건
포함
머리
언제
해도
사이
동안
그것
##자의
##6
미친
등의
입장
성공
##실
##구
절대
##사업
##장
대학
해결
전체
사고
여론
##봐
##한다는
국회의원
##국의
##잖아
##스럽
총선
##때문
만든
개돼지
기본
그게
##률
##넘
##신
##어라
##배
해라
제품
제공
##법
금융
빨리
얼굴
요구
마련
의미
전부
##ㅋ
##는가
거의
자식
##좋
요즘
시즌
##려는
설치
##계
세월
##센터
국제
민주
노력
부산
ㅎㅎ
##돈
회장
선택
가운데
과정
강화
주민
나가
선동
##층
걱정
내년
아무
해당
한심
문화
존재
정보
40
하루
ㅉㅉ
##별
##봐라
##7
여러
예상
행동
공무원
아닌가
##급
구속
##새끼
만큼
##아라
새로운
그래도
사랑
더불
등이
방법
연구
들어가
사진
##8
##비
지적
##버리
위해서
관리
생산
서비스
인사
아들
##문
정의
그런데
새끼
최대
##용
##못
검사
가짜
규모
부분
비교
재앙
비판
##베
만나
도움
##대통령
조금
##단체
##대의
행사
##잡
광주
##구만
##진
조선
##개월
##회의
다만
나왔
김정은
유지
##텐데
거기
##애
##이상
##집
성장
전쟁
다니
스스로
이거
##명의
확대
##생
##날
##>
합니다
##같이
##소리
매우
다르
##위원회
판단
해서
출신
##알
활용
권력
판매
##운동
##대표
직원
##려
한편
18
작품
##장관
##선
사과
토착
##국가
친구
16
적용
마지막
과거
역할
지방
서로
##셨
##업체
처벌
똑같
##타
무엇
전망
이전
##두
##건데
대신
오히려
그대로
분석
##아요
강조
프로그램
기회
무능
도시
##기관
##하나
##없이
환경
건강
달리
만드
아파트
..
##으나
거짓말
완전
##인의
부족
뉴스
##9
오늘
적폐
카드
##고도
무조건
##율
##이란
적극
구성
승리
비롯
도대체
의견
13
##개혁
주변
아베
##봤
##더라도
그동안
너희
공부
더욱
비슷
대해서
지속
전문
오후
진정
##더라
##지요
##나가
##깨
올리
##던데
트럼프
불법
시대
14
##파
25
##꺼
대비
사기
##뉴스
##의원
관계
원래
##사회
##식
부동산
##만큼
기존
나이
##교육
##빠
생활
##건지
인천
어렵
##노
수출
캐릭터
아무리
##시켜
##0
영향
##으면서
시키
보도
인기
아님
개혁
제외
개선
거리
배우
응원
위험
##키
집단
##레기
이젠
고객
의사
##도시
일자리
가진
주요
##탓
##려면
나온
그리
##선거
##학교
중심
대단
반드시
방식
차지
17
한다는
입국
처리
##끼
##%)
발전
전혀
문재
##팔
##더
외교
현장
##가능
결혼
범죄
현대
차이
산업
달창
우선
경험
##세계
분야
사장
기간
##기사
부정
##딱
감사
##=
##누리
##개발
##문화
나온다
위치
인해
의혹
어찌
얼마
##시설
인물
상승
##문제
19
대응
평화
##꼴
선정
일단
업체
대선
그걸
##경기
##후
##그
혼자
나경원
치료
무시
##달러
지지율
당연
##장의
공동
60
예산
기억
그래
피해자
투표
확보
바뀌
평균
##줬
촛불
당장
유럽
진보
대체
##새
대책
##와의
비해
##건가
서민
나쁜
##정책
표현
우려
지키
##바
조성
##산업
집중
증거
정당
변화
방문
분위기
##맞
병원
##나오
열심히
외국인
##초
제일
##편
진실
21
LG
아버지
운동
##지원
출시
구조
인생
##왔
돌아가
##냐고
논란
시스템
통합
##쯤
황교안
인터넷
##왜구
야당
난리
실시
##시민
당하
전문가
영상
부담
##인간
##한데
##해야지
경쟁
##10
독재
각종
열린
24
##단
대회
##꾼
##많
심각
전략
##준
건설
소속
시절
그때
목표
##프로
대가리
한다고
군대
인권
##테
각각
저렇
도입
당연히
기능
공식
##시대
##ㅅ
##끼리
무기
##남
##로서
공급
##다니
정치인
강력
실제로
떨어지
##고는
##생각
특별
글로벌
70
##기술
비리
앞서
##께
자연
조직
동시
##m
실제
##활동
인상
##속
##+
안전
##잘
공정
환자
브랜드
##아도
반면
지랄
##라니
##관리
위기
여행
논리
핵심
발언
##한국
##드
##까
사퇴
##감
업무
유명
##고의
떠나
신경
##^^
보호
##됨
사태
가치
##답
##우리
임명
외국
언급
##로부터
지난달
자동차
건물
차량
중국인
노조
항상
##자는
##대회
참석
목소리
한국인
대형
상품
##쪽
아예
네이버
##리그
고려
오래
##졌
자랑
##판
##위원
대화
##정치
##그룹
내놓
안정
마찬가지
##거리
혐의
행복
주제
감소
죽이
22
우승
##병원
국정
개최
수입
참고
친일파
단체
희망
##라서
연기
제작
민주주의
바람
##수처
##자고
시기
합의
도와
느낌
최종
##다며
##조차
나중
훨씬
##척
또는
거짓
역대
200
진출
##당하
망하
##보이
##난
오전
의료
SK
독일
공연
불쌍
##18
엄마
전화
시행
경기도
더러운
노인
모델
작가
없애
양심
출연
##났
따른
포기
사망
개소리
23
##조작
경영
영국
##면서도
프로
미세먼지
원인
평생
방안
##관계
노무현
이미지
교회
##산
바보
청년
##느냐
##당의
##%,
##글
수익
##듯이
의심
롯데
##바리
실패
##국
친일
##갔
문죄
드라마
어려운
궁금
##던가
##동안
매출
##은행
어차피
##봐야
##왜
영업
여당
지급
주식
##롭
##미
~~
비용
강제
2015
종교
협력
금지
돼지
디자인
80
##플
판사
통과
##죽
반응
공산당
높이
노래
목적
소비자
일정
내부
##박
우한
오르
비난
##30
제도
##남불
##스
중앙
##방송
##앞
2014
보였
##정보
불과
미사일
불리
계약
규제
유시민
반성
자주
신고
##생활
스킬
영어
바꾸
##값
##금지
이명박
발견
2012
##부의
##통
어쩌
##주택
그나마
##회사
공장
##어야지
반일
나올
##수준
제시
##깨문
##케
##으로서
대출
은행
인구
##리
할머니
순간
자살
최초
뻔뻔
2010
괜찮
시리즈
26
본격
##벌
속도
사례
부르
월급
혜택
##능력
##온
선발
자격
##∼
생기
버리
##민주당
질문
##ㄷ
주인공
보유
성적
27
사형
조치
##20
엄청
웃기
제기
##수사
##겟
이벤트
여전히
광고
논의
고민
공간
러시아
분양
마치
제한
##발
##세력
하늘
회복
2016
진심
연결
법무부
느끼
주목
차라리
##사의
간첩
성과
울산
불매
28
윤석열
##성의
고용
신청
유일
총리
방향
행정
##위원장
나타났
작업
심판
인식
남성
애초
주택
##승
싸우
##잖
소득
확실
##사건
구매
무대
반영
고통
지나
##&
##심
요청
수가
##므로
전했
특징
##본
ㅠㅠ
2013
자꾸
교사
##소
검토
마라
눈치
변호사
덕분
참가
##으니까
작년
기부
남편
매일
중소기업
강남
본다
완전히
갑자기
솔직히
분노
##..
##투자
##수의
봐라
조선일보
한마디
##충
나머지
확진
자료
이익
그거
TV
음악
나서
##금융
전투
복지
##해요
보통
판결
##론
서울대
확정
연속
##겁니다
해야지
상식
주로
##만의
예전
##북
시도
구축
감정
지정
2011
상당히
사전
짱깨
홍보
바이러스
경북
거래
##25
##ㄹ
집회
파악
장면
경남
택시
장기
##뭐
특성
에너지
제목
아래
재산
마을
인터뷰
300
##자리
##는데도
범죄자
##했으며
온라인
따로
의해
1000
취업
거부
##너
알려졌
##여자
올랐
2018
##대학
소개
살인
종북
최소
관광
일어나
##가족
##도의
분명
##던지
##분기
2000
##래
뭔가
##와서
설립
##킹
##입
전라도
##주의
사상
멍청
##저
##줘야
##본의
##참
방침
남북
이유로
가정
##스러운
##든지
의지
활성
##한다면
선생
##공사
공감
대전
집값
500
그저
사회주의
##기의
이기
시설
기관
2017
##총장
세력
##부대
버스
추천
초기
투입
아시아
초반
##루
삼성전자
모양
소재
고생
특수
여부
시점
신뢰
##물
힘든
걸리
##앙이
##검사
우수
생겼
중단
부탁
##갈
90
조선족
변경
총장
알려
최순
##느라
##국당
빠르
보상
불안
맨날
통일
프랑스
봐도
ㅡㅡ
공사
공공
##본부
플레이
그건
담당
나와
거지
##시킨
전달
2008
당선
##ㆍ
스마트폰
실력
2009
지구
박정희
도로
##준다
기획
##보험
밝히
시험
29
근무
##세대
##난다
목숨
중인
폐지
과연
유리
바라
약속
온갖
심지어
아냐
무섭
하락
##㎡
음식
멤버
행위
개념
이끌
##종
동네
마시
점점
상당
베트남
마무리
취급
가슴
싸움
열리
##상의
##반
키우
줄이
##져
이걸
평소
정리
어린
##ㅂ
이르
이때
##일본
근거
설정
강한
수요
##고자
올림픽
감염
내리
##집단
##ㅎㅎ
불편
대변인
종합
감옥
차원
##하고
##차리
따라서
혁신
##빵
게다가
전환
##쇼
##직
조건
가입
일제
##볼
정확
체력
충분히
기반
##학년
의도
##아이
##제도
##니깐
만약
생명
##사고
개정
##규모
체험
##가구
광화문
##짜리
차별
협상
장애
자녀
규정
어쩔
저러
자세
민족
비중
##연금
##불
피부
이동
31
갈등
훈련
까지
유치
##만들
앞두
매국노
부터
벌써
##강
##패
전기
##병
##시켰
##왕
원전
태극기
나타나
도전
외치
인근
제출
##중국
이루
정작
자금
##로운
##조선
##시의
똑같이
시위
특정
눈물
아이템
라고
전통
소비
바란다
##티
##ㄱ
그랬
##에요
기분
##;;
이상의
##계획
##선수
직업
과학
##싫
##과정
주도
##후보
통한
헛소리
확산
위원장
무리
늘어나
매년
주인
불구
제안
중간
답답
##서의
##막
##죄
##찍
그룹
##마저
##기간
어머니
민간
가만히
생긴
선물
보고
억울
##복지
이곳
개판
##채
##표
법원
##습니까
비율
##는다고
강하
안타깝
임금
축구
올려
화이팅
##방
죽음
재판
출마
한반도
기초
##됩니다
절반
보장
##거든
지지자
미리
채용
스타
공산주의
독립
달성
주사
군사
단지
이용해
아닌데
교체
졸업
실적
수상
그럴
##으로부터
위협
##민주
출전
##협회
계기
문통
##일까
동물
깨끗
무식
##평가
##정의
활약
성격
처럼
자원
아무것
##세금
청문회
인수
##석
양아치
##ㅡ
연예인
어린이
경쟁력
차례
형태
찬성
##제품
이놈
제주
정체
##계의
##15
향후
##천만
위반
회의
##진짜
조심
##을지
미치
업계
배치
수치
영웅
공약
2019
##제의
넘어가
##.?
##ㅠㅠ
##환경
엄청난
##북한
말씀
단어
단계
재정
우파
조용히
구체
안철수
촬영
인한
위안부
악마
##ㄴ
무료
##공원
고소
##ㅉㅉ
신규
파괴
바랍니다
전용
지시
구분
의무
##더만
##간의
##서비스
##측
##카드
달러
인도
##무
##단계
##자금
전력
몰랐
대처
공천
들어오
현지
##십
##땐
청소년
소설
실수
동원
##이익
군인
동일
##악의
##지금
##D
집권
조정
서울시
특검
손해
전시
별로
##관
현상
유통
혹은
소환
구입
단순
기소
##동의
##는다는
수업
헌법
##봐도
굳이
##노조
##아야지
##체의
이럴
물건
힘내
장비
##시즌
부상
전형
측은
살리
대놓
2007
KBS
##위해
나섰
입니다
미군
##합시다
그림
##단의
부부
아침
연출
목사
##통합
##이번
챙기
##언론
##믿
레벨
바탕
##리의
거쳐
뿌리
##걸로
알바
봉사
선언
감성
덧붙였
한나라당
관한
인증
##위기
꼬라지
##상황
할인
##공개
집안
충격
해석
노동
전자
취소
수술
올라가
##대가리
바다
##지도
확실히
성능
##19
##지구
##간다
##낸
##람
원칙
동의
그녀
이어지
##~!!
어려움
##백
협의
느그
##시킬
##다는데
##했으나
##으려고
전두환
##버렸
프로젝트
청원
##친
빠른
##교수
##할까
최저임금
공산
##삼
##야지
##진다
소통
장난
부인
##에겐
막말
홍콩
가득
더럽
소식
##의회
신문
임기
국토
명단
유저
##폭
##대상
추정
##니다
타격
회원
##ㅠ
벌이
사법
배경
##ㅈ
반발
정의당
치매
##돼지
바른
주문
##처
##가격
##군의
기다리
뭔지
인재
##인가요
##골
여러분
그만큼
초등
지도
외부
##회담
전남
##마을
희생
옹호
허용
매장
비례
##권의
절차
연계
부자
미쳤
##',
##게임
직장
연장
대중
##쓰레기
##쳐먹
떠들
주가
효율
어떻게
##포인트
##또
##전쟁
스토리
##보수
펀드
##업의
밝혀
보험
##란다
##OOO
##회견
##세기
민심
고발
안보
##이런
장사
수행
##댓글
##잇
##피
수많
등록
##박근혜
지식
새로
##고서
##마리
##듣
##퍼
##시켜야
유튜브
##구조
일상
나눠
세대
홈페이지
##A
문서
가수
##조정
반복
전반
스포츠
노선
##으로써
##12
##11
방어
철저히
폭력
노동자
이리
##발전
돌리
##’,
##원의
##미국
##약
대사
가까운
##공항
죄다
인력
사라지
##빨갱이
따지
늘리
데뷔
리그
부문
압박
금리
##아의
와서
빠져
여름
아마
폭발
결론
##폐렴
##줘
기생충
최소한
##정상
##처리
##결과
장소
##등급
심하
확률
MBC
##정신
##행위
알리
시청
##단지
##땅
##가의
주말
완성
미안
##시스템
##50
유공자
민노총
육성
나무
##쳐
바닥
통제
창출
교통
의식
##크
여야
##공장
시각
시진핑
모른다
분열
##슬
##올림픽
자국민
짜증
한계
##지의
##펀드
빠지
이상한
운전
감안
##통신
벗어나
##열
##보내
저것
해체
공격력
저기
##대책
마법
##녀
##공단
축제
저게
다행
아내
##즈
공유
말아먹
제거
##망
원숭이
##그네
정신병자
협박
비싸
##덜
나베
##줘라
##자식
저거
맞춰
차단
선진국
##사실
기여
##정당
옛날
대기
##선동
인성
호텔
클럽
그래야
불만
등등
##레
통계
##상태
##ㅡㅡ
##%),
부끄럽
수원
동료
수십
프레임
모바일
나누
##과학
##지방
##뽑
##업계
지켜
##감정
자동
구하
숫자
##투표
##곤
자영업
##그러
##’(
지나가
극우
##폰
##된다고
모아
점수
##써
장점
비하
에휴
자빠졌
최저
라는
개입
충분
##사태
해명
남의
전년
##집회
즐기
나쁘
##라면서
관광객
체결
이슈
##좌파
스타일
##디
매력
대다수
이어
겨울
봐야
##햇
##**
이달
##세상
권리
주의
##비용
진단
입학
유닛
아가리
##자동차
대안
현대차
태도
후반
어른
오른
홍준표
아닙니다
공기
올렸
철수
지도자
합리
소송
대만
이딴
작성
이래서
##건설
##께서
금액
에라이
^^
꾸준히
쳐먹
냄새
##시켜라
수석
##뒤
똑바로
법안
당했
준다
제정신
##재
상위
##40
무죄
간다
검증
##거라
줄어들
조중동
착각
통화
대우
##보단
몬스터
##한지
포인트
세우
구간
데미지
복귀
터지
극복
지자체
천안
마케팅
##대한민국
##량
됩니다
거대
##된다는
##딸
##코
##군요
설계
호구
##연구
문정
예방
적당히
만족
아빠
물가
칭찬
전면
##국제
##회장
아프
실질
##대가
투기
원내대표
격리
상처
##행사
수정
접근
다소
구라
학원
하네
진중권
##버
##종의
연간
원장
##비리
어제
##기자
KT
시원
해소
범위
형성
체제
2006
움직이
발사
향상
나와서
##ㅎ
일반인
##모르
한테
##다시
어휴
드러나
가구
플레이어
##류
##시절
패배
출발
현금
크기
##구의
창업
하지만
운행
##재의
혹시
##을까요
##선의
역겹
학부모
##기준
방역
##연구원
무역
예비
지하
버티
가까이
35
최대한
된다는
##]
슈퍼
가게
부대
망치
마약
시켜
카메라
편하
실망
스트레스
단식
검색
사이트
##필요
##주년
고맙
##져야
라인
월드컵
철저
##전자
부품
청구
직후
##맨
시급
명의
심사
경고
##밖
##에다
잠시
적자
그러니까
##의식
이하
##여행
다를
##신문
수능
긍정
뒤집
동생
짓거리
반도체
드루
필수
제재
성인
맞추
##심의
애플
측면
굉장히
##카
방사능
##협력
종료
##빼
아깝
지내
##가리
##연합
이사
의문
##스타
지옥
##성과
연금
압수수색
진입
에서
##고요
방해
떨어진
##히
버전
페미
고향
무려
다리
윤미향
직전
용서
약간
##순
##눈
논문
최선
물타기
##000
##분의
데이터
##당한
혼란
완벽
가리
보스
연봉
##넣
##증권
##`
##나간
##곡
욕먹
들어갔
입주
##당과
고급
##~!
부여
대학생
오픈
대북
##서울
##끝
##성장
##G
때리
아닌가요
이란
부활
##㎞
##재단
겨우
무서운
콘텐츠
주력
재난
인하
##단다
도덕
문정부
##인들
##청
##운영
##조국
##영화
##버린
패션
실천
투수
발매
사정
재미
우주
##자체
##대학교
상징
##예요
단독
동영상
정확히
근본
##t
##금리
겁니다
##겨
토론
조용
##100
##가량
아웃
기계
예술
##터
노예
상상
##라운드
유도
##자마자
식당
실험
명예
관객
##km
컴퓨터
훌륭
스마트
##구요
##해졌
표시
##사항
곳곳
순위
지능
##개국
##산의
518
저리
##효과
조합
150
##책임
기독교
임대
갖추
성폭행
##자면
반박
##민족
감싸
촉구
커피
살려
학습
위선
##할지
지분
피하
##업
도착
##상품
영입
##순위
뇌물
독도
문가
존경
##랄
##사랑
##지사
##차례
김대중
미개
확장
##싸
손혜원
처먹
가해자
만한
폭행
획득
제조
만난
이재명
수준의
증명
##소득
압도
아동
표정
사이비
##똥
계산
당한
##아닌가
일부러
누군가
이념
##경찰
##검찰
##욕
교활
바꿔
전원
##처먹
난다
정은
왜곡
##이사
##르
##장애
마세요
##했었
투명
당당
친환경
탈출
차리
모집
존나
남한
상관
답변
박사
##입니까
항목
패턴
펼치
##식의
개성
자산
참으로
나름
명령
요소
허위
흐름
지배
대폭
##잖아요
##가치
매각
권한
비밀
##뇌
갈수록
##잔
나갈
##핵
떨어졌
장악
부진
지하철
체계
##밥
꼴통
충남
운용
##길래
단속
으로
평등
##동
##자원
자유민주주의
##출신
신용
감방
##친구
##으라고
과제
##관련
##식품
지켜보
악화
인원
저녁
기념
사드
모여
취지
##안전
국립
기도
조기
##갑
벌금
수단
시국
제주도
웃음
##학생
명이
운운
변명
적어도
##세트
자극
##색
##대출
데리
협조
##이제
탄생
성우
내려
##5000
발동
북괴
##꼬
이혼
된다고
##대강
상반기
걸쳐
새벽
##~~!!
테러
발악
시선
분리
##땜
##다른
이웃
어이없
영역
아무런
완화
주둥이
신설
##쉬
명칭
자율
유사
징역
작전
모드
##교육청
##독재
##둘
야구
##의료
2020
요리
##나온다
##이의
우린
길이
자존심
오로지
##으시
예측
채널
주위
##수석
##로써
점검
##13
앨범
##력
##닫
##좌
##브
노출
민생
보냈
뉴욕
완료
##하의
##손
파업
실현
카페
##16
가끔
개편
유학
##베가
##문재인
유치원
국방
##앙
하반기
뛰어난
애국
조만간
##다운
##전화
아줌마
이탈리아
독자
소녀
품질
삭제
남녀
비상
정식
2005
살아가
##체제
##관의
##액
축소
##링
지사
생존
저렴
종목
고위
올린
리더
법률
##민
축하
재벌
##인사
공항
불러
중도
걸린
무식한
의한
##시험
400
바라보
이자
물러나
양성
하나님
##유
##원전
##ㅜㅜ
##전략
새롭
은퇴
움직임
엔진
변신
##존의
대답
적절
##으므로
##환자
동참
보복
배려
무장
의료진
##지수
용기
##족
수비
자국
담배
돌파
출범
전세
투자자
한글
괜히
##계약
달라
법무
##라인
##따
문자
##ㅇ
물량
최악
상담
45
우습
##프
선고
##작
추미애
쉴드
메인
욕심
사항
던지
한두
따뜻
##재산
폐쇄
순수
향해
가만
수용
호남
##돌
공짜
근처
취임
기타
화면
너무나
##구역
##타령
박원순
시청자
후손
5000
여유
센터
발굴
##조치
아프리카
한정
##구속
이득
##주일
배출
비싼
평범
선전
블랙
명분
인정받
한방
나선
미쳐
로봇
부패
전개
돌아오
접수
쩝쩝
##닥
진영
가동
사안
위로
강원도
종류
건립
메르스
휴가
자한
왜구
포항
골프
갖춘
모으
##실장
근로자
증상
##공산당
##주민
##아들
자전거
영원히
##혜
특혜
차기
##짓거리
##민의
동맹
누굴
트위터
이용한
견제
두산
##--
타령
전날
분명히
##중앙
내일
감시
대결
드러났
핑계
오지
함부로
찾아가
빠진
##본다
##관광
통신
##엇
##농단
##법인
##자료
##외
화려
치열
대통
##닝
보다
##으론
작용
정은이
단일
비행기
##맘
사망자
팔아먹
파워
거론
##아파트
만화
소중
##려나
분류
이래
##줘서
벌레
##일의
죄인
32
합시다
정경
난이도
아름다운
변하
집행
##체계
##연구소
밝힌
##마세요
##스런
위하
##공
의장
연습
유출
수록
연말
입시
가졌
##생명
홍어
모임
국정원
진상
이낙연
##TV
##위의
##먼
##전이
이민
##주도
언어
발휘
구역
장착
##시기
정규
지진
이렇게
장학금
노리
##딩
수학
상장
##전문
추종
좌우
##거래
거두
몰라
##전의
물리
살아남
##사진
대박
편의
내렸
일으키
자유당
ㅜㅜ
##공간
즐길
똑똑
몰라도
##'(
비핵화
그린
배달
드러내
승인
강의
역량
##모양
흔들
##키로
조언
본질
공포
##예술
큰일
긴급
산다
혐오
오랜
##감독
죽창
##도로
##24
모조리
##많이
홈런
수구
세트
국방부
내내
애니메이션
단순히
허가
경상도
누리
겁나
아닐
수백
##녀의
##틀
##혀
##어의
승부
멀리
##교회
##역사
법정
어떠
연락
걸려
다수
##여성
김일성
소유
##갱
형사
들어간
##야구
추구
##평
호주
지겹
당초
##보호
##건가요
유니클로
##으
아닌지
도쿄
부리
한화
##식이
고작
고대
항의
##보도
문제점
이중
철도
##번호
이내
##청산
등급
도발
운전자
돌려
책임지
초대
##여서
숨기
##21
초청
동기
##마시
창원
보낸
##한가
다루
주기
감동
대로
##용의
부지
예수
묘사
##에게서
박수
거주
##은가
절대로
충성
넘기
##당했
또라이
##경영
##논리
위원
등과
성향
와중
올라
후회
도둑
방지
오직
IT
아이돌
합류
고정
##기구
간단
##대전
포장
젊은이
화제
무릎
만만
강요
등도
등신
##들어가
##‘
##션
도중
눈길
부회장
지상
경선
##유공자
심리
##김
##냈
##14
##구먼
요인
대가
##다음
경력
##교활
##량의
벌어지
##미래
##아냐
##축제
남기
##차별
##책
인류
2004
태어나
공략
식품
##에너지
##창
혈세
진화
##양
##분야
개방
쓰이
교류
##는군
##그냥
##x
3000
메시지
폭탄
쉬운
##몽
##당시
추세
##조직
--
인민
##남자
##후의
이사장
짐승
##시티
추경
정기
##현
즉시
판정
##%(
컬러
대구시
걸렸
##머
가난
##이닝
정비
##지지
손실
이외
날씨
떨어져
입지
창피
워낙
꺼내
임시
여기저기
원작
고집
애비
아쉽
봅니다
존중
##그렇
가을
찬양
참조
부실
무너지
뭔데
손가락
##잘못
일대
##못하
##셔서
SBS
꼼수
##동질
##런
##초의
##으려
이만희
세뇌
##ㅣ
##쟁이
##종합
주지
포스코
##청원
소름
청소
구단
##공무원
이해찬
연구원
외모
통하
##드립니다
일방
보고서
##해진
내지
날리
전북
부당
경계
실행
환영
마누라
부끄러운
##태의
호소
상관없
구글
휴대폰
##자치
가깝
한쪽
##는구만
33
행태
공중
##찬
합격
명품
##자유
신상
일당
토지
몇몇
종자
##품의
##S
주거
붙이
마감
출산
36
요금
화력
프리미엄
독재자
강간
연관
집계
듯하
형식
태양광
돌아다니
고유
##교사
##준비
교육부
선배
무게
##이하
추락
양반
아닐까
##거의
만났
##17
유엔
거듭
후원
발목
아이폰
투쟁
##버스
보안
아이디어
##으세요
##;
사죄
##봄
사법부
듯한
##든가
느껴
틀린
##문의
수장
식사
##역
생태
##모
##´
응답
##합의
챙겨
##겄
넘치
##내용
##건강
작중
##팬
위조
##꼴통
##존
##놈의
##치의
국적
인지
심한
고개
방치
수립
전교조
선보이
한미
이틀
##풀
시체
하여간
타이틀
##치료
실체
어울리
안다
##마트
에피소드
##체
개봉
양산
신기
임원
느낄
착용
부과
보여준다
취하
이성
선두
엄청나
폐기
##금
취재
##현장
##안타
오염
알려진
SNS
##매
##이유
##파의
언제나
이명
계열
지인
##돼야
나아가
편성
##해봐라
##차려라
##대구
180
발행
##방법
##학원
받아들이
외면
김경수
탈락
속이
경주
본사
때려
항공
월드
##평화
가시
한때
초딩
##속도
음성
##죄인
특유
청산
위대
수수료
단점
##예산
할까
개학
##피해
대거
##500
고등학교
뒤지
2002
영혼
맞서
당해
사유
서류
신체
자제
금메달
미디어
부채
파티
일본인
건축
갤럭시
##의의
##모의
배제
재료
##물의
첨단
선임
결코
##방식
##아님
먼지
##일보
내수
디지털
간부
든다
화재
자발
##털
##은지
멀쩡
진술
알려져
붕괴
어르신
한다면
##시청
한참
##나와
##22
아군
이재용
별도
실업
화가
오바마
##댓
##전하
매국
##칠
착한
##드리
드디어
선호
##시가
##외교
언론사
지나치
대변
시나리오
열받
##청장
##기록
PC
##홀
메이저
행보
열린다
계열사
퇴출
##60
선출
##훈련
모이
체포
파견
##레벨
CJ
패치
##자산
설득
업그레이드
소문
인프라
##부모
보급
대하
복잡
징계
망해
##푼
고교
##소속
##임금
52
사무실
##범죄
99
##물질
교육감
##부리
일관
감당
속성
꼬리
개정안
##머리
백화점
##현재
##판사
맞춤
120
급증
스페인
##혁명
약점
예배
##학과
부장
예약
해양
통해서
즉각
아울러
근로
##검
##새기
대법원
맛있
##동네
캠페인
그야말로
##팩
경향
##노총
##으러
추방
당사자
##혁신
취약
성추행
##체험
전공
법인
용인
아니야
##져라
복수
자본
국산
충돌
치르
##얘기
##23
##해양
##다면서
##코리아
##칸
석유
망할
복합
늘어난
비정규직
아기
회담
매입
누르
##장이
오해
재미있
한데
득점
##처벌
65
##맛
해제
채권
설마
브라질
김치
위주
주관
##폼
과도
##떼
결승
개통
##국장
##는다면
여담
##작업
탑재
업데이트
모자라
선박
##뇬
정답
##당국
지껄이
날려
기름
훼손
##행동
오만
동남아
##편의
추석
죽인
저자
결제
자가
왼쪽
원정
보완
해산
##총선
농업
##화학
##썬
입맛
##대한
노후
##생산
노릇
저딴
개설
##천지
이분
##튼
건지
몰래
##정
걸로
데모
괴물
영향력
##지나
죽여
조절
내린
공모
내려오
##주인
##빈
실시간
##큰
##표의
시계
##위한
##아닌
창조
##총
어깨
##버린다
##지경
질병
페이스북
시범
흡수
##중공업
가르치
했었
살아라
##범
임무
##무역
의외
예고
태국
입증
조장
##행의
채우
##28
환율
자본주의
지점
##국회
소화
##술
##27
국익
##26
##X
시인
##기회
주최
중반
직무
믿음
##인과
##행정
##수당
##기능
타입
진작
채택
미션
할아버지
상대방
번역
##우
연주
600
##규제
대충
##시리즈
상호
##부문
##쥐
##→
##직원
지역구
어려울
타자
그곳
주한
##공격
윤석렬
북미
##2000
##을려고
공원
##전형
개별
매번
졸라
화학
##정말
##봐요
방영
##턴
추측
성매매
##감사
##신고
##대응
올바른
34
38
손석희
만세
코스
연대
강도
버렸
##따위
미만
강행
##미아
수주
증시
닥치
꺼져라
유승민
접촉
우기
부처
떳떳
##쇼핑
분이
##이후
##안보
##협의회
예의
##컵
##백화점
##올
##십니다
##좃
##짝
후배
##29
하여튼
극단
손잡
흘리
##톤
2003
식민지
조롱
수시
##ㄲ
보건
낭비
동양
##시국
저지르
애기
##다만
##낼
임직원
둘째
철거
국내외
감히
모자
##프로그램
표창장
##개선
심장
##절
죄송
재밌
적합
배운
통상
캠프
##구리
일행
태풍
철회
통보
##마의
##봉사
단위
균형
자라
만날
중대
어째
##짖
들어갈
따위
고문
지원금
객관
##비율
기어
##인력
##그래
##인당
그치
나대
개막
무력
꺼져
활발
##C
나설
고기
관측
며칠
##늠
상인
이겨
예능
제압
저지른
전해졌
모를
지소
구현
##연대
잠깐
민정
##텔레콤
##대변인
전파
화장실
풍부
제정
##탄
면상
캐나다
##부분
##인권
##안정
연합
콘서트
적발
##부가
점유
선거법
##느
문의
##차량
살해
##으려는
불가피
곧바로
가볍
녹색
부작용
맞이
도심
##반의
KIA
##대비
저항
각자
##블
##무기
편의점
무상
그쳤
신분
거절
지령
##사이트
##저런
김어준
##현지
자들
했으나
##B
##철도
마녀
##부장
면접
재인
알아보
긴장
특허
챔피언
##마냥
##마스크
##시킨다
##덩어리
수리
나갔
##탄핵
기가
##패스
##질의
지휘
##셔
과장
##마음
메뉴
소장
화장품
##원장
줘야
도내
요새
네트워크
중학교
죽일
기득
##더냐
세종
저건
##협정
편리
점차
광장
열정
보조
오죽
사업자
휴대
##축구
언젠가
현안
바쁘
##미터
전염병
반미
삭발
침몰
양보
장군
출근
##반대
업종
먹이
그지
유력
기술력
전직
처분
계좌
시비
신도
고양이
옮기
거품
귀족
가계
##평등
오브
##아직
운명
##했으니
##앤
##.!!
##천억
살펴보
황제
##강의
넘겨
##충이
앞장서
씨부리
실정
형제
##츠
##올리
당일
소신
##순간
감추
해군
당부
직장인
시전
꼰대
표기
공직
특이
연애
##종시
심의
앞뒤
교과서
마땅
유행
##그런
그리스
매매
##교의
동부
유발
유족
참가자
유입
오른쪽
##''
위장
##누
##K
##이러
기원
강원
정하
약자
범인
실내
vs
##현의
압력
##선언
##인상
점령
정규직
추적
##조건
안심
##80
연령
##갖
투어
상당수
##보인다
색깔
리얼미터
이쪽
편안
민폐
멋지
보관
##이게
빠졌
##로서의
##스포츠
##훠
인건비
선보였
광역
마인드
봉쇄
아저씨
약한
##는데요
순서
민원
침해
끔찍
일찍
##g
##당은
보일
##이래
코치
##사용
여경
대한항공
멋진
그날
증언
##떨
사기꾼
##냥
정황
##희
##www
이적
선진
##기기
화이트
입원
추억
약하
안팎
##의장
특화
수령
정말로
##카페
개의
##죽이
마스터
##라는데
유가족
##찾
##객의
##시위
##격리
##여야
##세의
이른바
##입국
회피
##준다고
##보복
지명
##거지
이행
뮤지컬
##장치
##화의
내려가
##동물
종족
만들어진
##앗
##해진다
정착
중소
##인척
진료
맡기
가즈
37
##꾸
##공인
종종
필리핀
김제동
참사
키워
음주운전
거치
명복
소년
##200
##통의
##이리
공평
##변화
##메
##탈
##오늘
토대
##짜
매주
망했
소모
뻔하
여권
##호의
##냐는
신속
지경
##지랄
그럼에도
##중의
##쓴
본부
등판
가져가
##권력
각성
여수
중립
폭동
##파크
어리석
75
일원
기기
장식
이어졌
##됬
악질
드래곤
주차
##그래도
##야당
배터리
##70
나간
개그
침묵
##봉
보여준
간의
본래
들리
깊이
서구
임신
산하
대미지
부각
가량
절감
들여
전수
##교통
패거리
55
공인
##계층
선사
허리
상가
##미군
##유지
저질
장치
##공의
##우의
초과
배상
나의
정유라
##덕
써야
전해
대량
아끼
##임의
##사기
사냥
##업무
중동
배신
금방
##금액
티비
위력
##장비
병사
이뤄
가사
테스트
맥주
##작의
한전
##지키
##차원
##ㅜ
이용자
##였으나
##슈
##걱정
의회
조례
급여
##올해
##징
일어난
##으신
계시
##는겨
GS
놀이
##모델
##커
##연의
법대
##여론
청약
도저히
##노동
##싱
흐르
##설
이승만
##승리
서버
##심사
##금의
단기
클리어
근접
중앙일보
##무슨
예외
##지난
##슥
사라졌
재개
경유
저축
병력
구경
꿈꾸
그쪽
낮추
##엄마
링크
##cm
##찰
각오
대해선
신중
##차이
쇼핑
지닌
##할려고
결합
보수가
##짱
한남
1500
가스
##처분
별명
파리
이순신
런던
이래도
코미디
충전
무한
회수
##kr
##에서부터
선도
빨간
왕따
자진
영장
##껀
강사
##가요
편지
들어서
영원
위상
##울
마이크
AI
교도소
시켰
##중대
서명
##나갈
##최근
공익
보소
패스
##찌
48
목포
##너무
학살
##짐
월세
##대사
깔끔
##딜
협약
퀘스트
공주
명확
독특
멈추
확신
41
밥그릇
##학기
컨트롤
가지가지
##!!
비서
모인
##캐
익숙
구멍
살짝
장르
42
##투어
소형
망신
##진의
조폭
돌입
뜨거운
내주
연극
##경
양국
저희
의뢰
명절
하위
##꼬라지
야권
인턴
재단
초등학생
말라
담긴
부하
더블
##빠리
정원
대구경북
교환
어릴
열렸
##판매
길거리
납품
사격
깡패
업적
작동
##.!
웃긴
일시
1990
의존
환장
모았
커녕
흔히
설문
상생
옵션
약국
아픈
사면
##해의
떠오르
##룰
##합니까
느꼈
성남
용도
공작
현역
코스피
빌려
적응
##생의
##협
소수
엔딩
만남
비전
##~?
##31
##요금
실무
##35
억지
##인생
따라가
관심없
매달
전광훈
##역의
39
##재정
공기업
of
수고
유권자
염병
저놈
스펙
800
중구
##입장
대국민
소련
설비
어이
가관
올릴
##격의
##사가
##주가
베네수엘라
##사이
##그리고
##쑈
##모두
수호
FTA
##믄
제조업
써라
놀랍
##그만
54
마이너스
##시작
앞둔
면적
옮겨
미술
한국어
유형
지연
발광
싱글
되찾
라디오
그간
여건
바이오
중공
아픔
해방
##미사일
해고
다가오
격차
##그럼
##노인
잔인
침체
역전
뛰어나
물질
성분
당황
사악
상승세
누적
##양의
KB
현명
커뮤니티
흥미
문구
전역
##발전소
미니
##일자
##망하
##부산
죽였
품목
비록
입법
폐렴
##인데도
충북
지도부
##연맹
인연
이론
개뿔
놀라
수집
##여당
세워
태어난
##자기
조지
재판부
##법의
세웠
##일세
##공연
사지
##낳
당원
깜짝
판매량
조상
늘려
점심
건데
바르
##쓸
##과장
##텍
내보내
손님
발급
저주
시켜야
##나이
##선생
측근
마트
추악
##불당
##삼성
고의
완공
기재
##리가
전술
아무래도
##투
아마도
승진
##끌
밝혀졌
몰리
##면적
이스라엘
평양
##분열
##사단
전설
확충
##이용
평창
간담회
지위
##얼굴
권고
마친
융합
마당
종이
라면
##방의
다운
코리아
올라오
동반
CEO
위의
감염자
어린이집
##플러스
엘지
코너
주차장
##팅
상관없이
유용
플랫
쓴다
당국
사무
배웠
문학
##시켜서
밀리
교과
기각
##해질
하수인
재건축
##폭력
신발
깨닫
주주
의하
위선자
기대감
교통사고
취득
치킨
호흡
몰아내
마리
##당신
여의도
탄압
달려
클래식
표준
건가
##민국
##이름
##인구
복원
널리
관람
그대
새기
혁명
찌질
개헌
철학
##수익
줄여
인가
원자력
발달
날뛰
##개념
##질환
민감
유독
내기
향한
테마
##려다
재무
전사
이언주
소위
감각
대접
질환
던져
##기획
오류
매출액
임대료
##결정
##이렇
액션
##교체
면제
2001
지네
보존
##어디
##셔야
IMF
##모든
타이밍
언니
##활용
##3000
히트
250
떠드
관여
주자
백신
이정부
##님의
매도
다섯
용역
700
머저리
정신병
박지원
늘어났
작정
출석
##홈런
##와중
초점
##수지
##취급
찍소리
자신감
##추진
합법
유죄
관점
##거부
모시
하이
막대
빼앗
사이버
전락
##소의
피의자
막장
##kg
수급
구해
흔들리
어려워
후쿠시마
##건의
버프
감수
도서관
##바람
밴드
열차
##광주
악의
추모
##으려면
진지
##고등학교
과목
승객
벌였
비즈니스
명백
포지션
회계
가방
입사
##당도
농협
휴식
강연
##수도
##com
##따라
##작가
출장
##법원
##샷
끝내
변수
대대
바뀐
천국
##mm
조합원
모색
진학
에이
##켜
선관위
##복합
##방안
딱히
##바이러스
천지
솔로
국무총리
수습
케이스
레드
##간첩
##웃
##담
생길
식물
연설
당분간
##M
##십시오
##라구
강아지
저지
그분
바람직
##변의
##소재
신인
석방
##경북
##읽
지출
택배
자치
저장
전작
##*
##하우스
43
##코로나
스테이지
마구
##돌아가
신나
일각
될까
할지
에이스
인종
일어났
##조원
공직자
체육
엉망
좌표
##셋
침략
그렇게
비행
출동
노사
정서
외교부
전제
##사장
44
시내
조명
유전자
순식간
##배상
이마트
흔적
##도와
the
뒤늦
##지네
##영상
##학습
필드
주체
신입
보조금
구상
프리
한강
신라
##워
##공부
##교
##체육관
##플레이
이대로
엉뚱
##쥬
##근
족속
증인
오랫동안
##몰
상하
흥행
카카오
종전
모범
대리
무산
##몸
##_
##지대
남이
농촌
달라지
풀이
##개입
통증
##자격
##누구
김학의
본선
##최고
파탄
##300
##포
##쉽
##놀이
##원대
귀국
##팀장
##나의
세부
##부부
할배
##참여
그려
가질
##실점
##힘
##라이
이끄
작작
##쳐라
가문
드립
전라
##최
이슬람
##항
대립
새해
##쿠
후보자
도구
##였으며
##경찰서
마냥
신종
##협약
백성
변호
##신청
측정
환경부
솔직
재수없
모른
##공학
북쪽
허락
##거든요
기득권
##싸움
##확인
##투쟁
이어질
역겨운
들어온
동해
##걸레
시킨
전기차
잡지
극대
부천
처지
어서
##1000
시골
제국
착수
경기장
주행
불렀
진주
##든다
##전한
연휴
불가
대권
##무시
벌어진
패널
당할
##~^^
가속
후속
부산시
##져서
터진
##앙의
##버려라
퇴직
상실
그만두
모지리
주세요
납치
##자신
매체
퍼지
생각나
코스프레
신선
##령
어마어마
제로
격려
심상정
바꿀
##광고
트렌드
문화재
##허
발의
##석의
떨어질
민간인
건조
##회관
삭감
방탄소년단
네티즌
놔두
다물
1980
황당
상향
관행
독점
사거리
방어력
접속
##뽕
심정
해요
무관
육군
한층
광주시
지수
들어왔
전주
넥센
쯧쯧
##용품
난민
와인
내면
인지도
##잉
##먼저
##색히
##행
##가스
여지
높여
인격
##폐
전후
다녔
용어
##인증
##칼
함정
기업인
##사업자
진로
기적
고백
둘러싼
추잡
주범
##클럽
##줌
PD
내세우
서서히
양쪽
번호
편집
보인
써서
녀석
정면
##보장
병역
어둠
그딴
일산
산불
세운
왜놈
성범죄
감축
도지사
무지
##연
##걸까
합동
##에다가
한겨레
애매
농민
47
어딜
블루
##바라
46
공안
자칭
역적
참나
##설의
49
상임
다름없
잣대
사립
애국자
높였
##호텔
담보
##파악
부디
신념
이른다
##이야기
##쟁의
신호
시중
잇따라
종식
오빠
체감
무덤
심화
정직
파트너
##봅니다
대목
정해
##암
붙여
##지원금
후진국
주둥아리
제약
씌우
##s
##경우
밝혀라
한숨
부럽
발상
이단
유투
최다
##만나
##체육
##닭
고인
점프
생계
교장
특기
베이징
##비의
억지로
85
귀신
고치
남쪽
자르
소주
##치가
가려
##R
잡히
싱가포르
##협상
##박물관
좌익
##종교
그릇
클라스
갤러리
자화자찬
습관
##갈등
막상
분쟁
그런지
누군지
중점
인형
##예
상무
마다
반납
환상
##배우
##경쟁
도약
현행
정수기
적도
##등록
전무
민낯
겨냥
안타
기지
지불
##모습
##놀
매수
고려대
개조
##된다면
인용
##나왔
##혐의
육아
구미
##델
정치가
집구석
놀아나
##국내
##인터넷
##전문가
라이브
보낼
##의사
호응
줄줄이
단축
##양반
##바뀌
##불가
소외
나눔
앞잡이
부위
##부채
유포
##낫
팀장
늘어날
##각의
시사
온다
##광장
##자본
시너지
노하우
화웨이
##뜻
지니
총기
유동
총괄
##진보
멸망
매치
괴롭히
저걸
##.??
##52
##뜨
준공
##까진
##골프
정지
연상
처단
안내
원의
몰아가
##토
해외여행
대학교
##인듯
##타워
지켜야
드러냈
체크
합병
탈탈
놓치
##공화국
마이
대륙
소요
##8000
차관
너거
핵무기
##협의
교주
##개인
차려라
시정
재생
나선다
##초등
노트
인데
전액
코드
##랴
중독
영구
##영업자
##십시요
폭로
지은
##수술
명성
선보인다
해봐라
외환
게이트
##45
타임
편법
##각
안타까운
##부품
제작진
망언
##사냥
##》
다행히
##누가
구청장
엄격
결심
##냄새
몰락
고전
스피드
창의
경비
부른다
##보여
수천
사무총장
아시안
##세월
##일자리
현직
##기한
될지
도박
원조
##주자
신임
출입
납득
핸드폰
장제원
쪽팔리
보너스
조종
부서
소원
배틀
##움
삼가
상업
##연패
마쳤
##효
돌아왔
##사퇴
##족의
하루빨리
들어간다
공산주의자
뚜렷
##4000
식량
##영장
떨어진다
가입자
천만
여태
석탄
어쩌면
물류
써먹
최우선
##및
고수
농가
거뒀
신화
붙잡
바치
흑인
##포럼
##캠프
치우
하도
모여서
머물
미국인
##걸리
##단위
돌아온
입찰
오버
소프트웨어
##사무소
암살
수시로
끊임없이
시세
##공정
시신
NC
##공급
성명
열기
뛰어넘
생일
불행
95
ㅇㅇ
남겼
##고객
그놈
##청의
##운
국격
##세끼
##변호사
기후
영토
횡령
부사장
야간
달린
건설사
##제한
소대
컨셉
찾아보
더더욱
몰려
진동
박멸
저소득층
해상
기부금
##P
국고
풍경
적당
##총회
색히
조카
소음
박영선
##6000
##정비
애쓴다
슬프
분당
##때리
##원이
아닙니까
강경
##확실
지향
유해
토론회
시끄럽
##당해
준수
##과제
태양
##작전
##엠
자세히
동급
연구소
51
흑자
기체
가공
보험료
소멸
눈앞
근대
쓸데없
이루어지
##힘들
##뻔
버린
나타내
별다른
패키지
##됐으며
##극
탈북자
김무성
쌍용
모욕
미칠
명목
마나
틀리
윤리
예선
##고용
사모
##제발
근육
미소
증권사
편입
따져
대장
학대
걸레
소상
청주
주류
고속도로
##집권
얼른
신한
한창
##뜯
은폐
범행
막판
##버려야
##저축
애니
학력
##터지
동구
##타점
건의
##형의
##번의
아나운서
지표
게이
##혼자
##기지
부추기
된다면
##와라
남부
##숭
최신
위축
행정부
##미의
개무
##부정
국무
추하
성별
앞세워
장자연
##방향
##셈
초래
##라곤
충실
서부
##발언
##동맹
망한다
##이야말로
잘라
절실
##징역
##통화
도망가
사내
온통
멕시코
##이거
##절차
##련
구제
모였
희생자
4000
주머니
펼쳤
##보상
뮤직
라도
##끄
리스크
거세
잘난
##긋
대외
주전
천재
거점
##민주주의
화성
##명회
##유의
조민
무서워
꼽히
텐데
벤처
탄력
버튼
브리핑
##증
##도서관
전시회
##등등
드리
##특별
차질
떠났
##몬
서해
##구당
##만드
##현실
##48
''
일으킨
연세대
등장인물
류현진
명시
연방
##장기
뒤통수
하필
59
전담
##당할
##집행
작자
##랜드
오가
인천시
지목
간판
던전
힘입
정시
공시
몰라서
부들부들
위법
##그리
의학
잠재
영광
스님
##통수
이뤄졌
암튼
든든
커버
질질
야이
##댕이
리더십
##부족
때려잡
##몇
자위
날개
들이
교실
구도
FC
야외
여전
사후
##라시
납부
점포
꼽힌다
연인
어딨
민경욱
자문
동조
##인천
헬기
분산
드물
대세
중순
##다니엘
배후
##청구
위해선
디스플레이
당내
##묻
강세
재능
여파
통장
충족
손상
피곤
어쩌다
구리
조화
먹여
##리스트
벌어졌
슬슬
탑승
전차
서초동
골라
1998
하나하나
남겨
내려놓
티켓
##회복
##소송
##터미널
터키
온도
##“
##어질
##제재
##탑
생물
##사상
##여부
수험
간호사
집착
경매
##버려
##섬
##채널
공화
##나올
##이전
##중심
##인치
포켓몬
##못한
##진흥
##철수
동계
##얼
귀찮
대체로
수법
조각
등교
##이라도
뻔한
꺼지
적의
##자나
외신
살인마
##득점
특권
국군
멀티
그런가
연수
다닐
공통
두둔
##룸
##청와대
바퀴벌레
팔리
항공기
고스란히
##몰이
중계
게시판
두려워
##게이트
건드리
돌대가리
##연승
어떡
무서워서
아마추어
##홈
##글로벌
가하
##둔
일어날
##넨
수소
서브
강점
단장
걸릴
메달
해킹
아쉬움
심해
1997
동작
##목적
실업자
원천
저능아
지킬
서술
싸울
선거구
어떨까
타당
##오의
했으니
다름
##는대
말장난
안중
##살인
홀로
블로그
##달창
우위
##밑
원가
화나
포털
고민정
##외의
##뱅크
##혜택
퇴진
비유
입력
1999
폭락
##인식
##효율
##먼지
사업비
학과
실종
바쁜
춘천
의상
실장
인도네시아
오랜만
된장
깨달
##데이터
등지
##아트
연동
가중
##학년도
바위
##음악
패스트
모금
물품
손바닥
마크
##남용
광신도
##소장
##꺼리
조차
##7000
##아주
##리라
루트
##솔
##향의
건전
고등학생
떠난
##법안
##특히
증권
##쉐
구원
##보건
유감
별개
김해
향하
##️
폐업
베스트
##껄
##한마디
##려니
막히
어쨌든
클래스
한동안
##치를
출국
비디오
##공헌
벌인
##랩
##지가
가상
처형
##학회
제자
교인
##현대
다크
나뉘
로비
전적
호평
우덜
##적의
골드
##높
##수가
국어
인공지능
어쩜
과일
입구
감상
병행
##스러워
##봐서
편가르
차세대
웃긴다
주부
얼음
가벼운
공세
발음
상금
##촌
##트리
측이
실상
김진태
공군
엄벌
용병
피할
현황
연재
임영웅
정치판
철강
대상자
바지
재발
정국
84
##청년
잠실
관람객
골프장
##33
피눈물
봐서
금속
중고
증세
##써라
거친
급하
##9000
사연
전염
##지법
##타임
고마
생성
위안
##대학원
착공
자칫
미루
나란히
수색
##월드컵
##살리
치명
동성애
##신천지
이뤄진
나타난
헤어
JTBC
##재정부
남긴
##겁니까
횟수
소지
공통점
퍼포먼스
##격
##청문회
두렵
사생활
고르
##상자
##보소
배정
급식
신세계
도달
구호
내놨
개독
일환
자질
즐겁
##90
고쳐
한진
지났
##옷
섭취
파기
보육
정밀
규칙
##디자인
##관심
참전
줄어든
##의혹
시달리
채워
##룬
상주
기생
세무
곤란
공정위
##아시아
##답니다
##유통
극장
##오염
속보
탁월
네덜란드
충청
터져
공권력
##틱
누나
##껏
조항
해골
명심
##함께
##일반
무상급식
##행복
##여러분
백수
탈당
##산다
모티브
##아프
불안감
##미친
보석
간섭
지혜
반려
조센징
##32
말투
##운용
그네
로켓
##인아
공지영
등록금
비겁
기다려
스위스
##느니
##판의
워싱턴
똥개
##지난해
내정
선포
기아차
바꿨
##넌
##포기
습격
경호
줄일
복구
##라니까
꾸준
담겨
##계열
##처장
##버릴
##통일
수면
##상공
비웃
공영
##기반
줘라
드러난
##스타일
사단
하드
도배
농산물
##급여
일치
64
박탈
레이저
종로
개장
찌르
##역시
멋있
운동권
핑크
##한의
##귀
싸이코
##연합회
##드라마
##㎏
##우파
##공동
잔뜩
각국
가세
##바로
실태
##창조
망한
국장
드럽
##백만
극치
웬만
강남구
강릉
##낮
탈퇴
##02
국비
신의
##기나
본회의
논쟁
첫째
##할래
##모임
자회사
타율
적정
금호
##위험
전투기
방송사
감기
##나온
황금
의결
앞선
궁극
공동체
걸려서
아쉬운
스웨덴
##34
##부처
농담
##십니까
구나
배포
도시락
니놈
박물관
과시
파일
낙동강
청탁
##수업
존재감
똘마니
더듬
박스
교육청
주소
##종이
느낀다
##청소년
##일지
반격
간접
기세
##트랙
과감
##분석
놀리
##>(
계층
##적폐
##랄까
타인
폐간
저번
불교
##으라
모순
치유
취향
하야
아부
관세
보편
금감원
##시급
취미
##사례
녹음
구별
###
한거
##한심
사시
내다봤
사라진
해결책
LED
비극
모은
건너
일가
재현
##인원
CCTV
사찰
문장
130
엄중
##영의
양상
코스닥
아이디
변동
##오픈
봉인
날아가
한꺼번에
중재
우롱
56
##규명
##인물
농구
##저자
라이벌
이제야
거꾸로
선행
주연
냉정
오늘날
소감
##교류
##상승
서양
토요일
##대행
성실
위성
배울
##미디어
책임자
##붙
##주제
속지
의대
느낀
추격
##앱
##락
스페셜
##돼서
##줘도
하향
유가
##주사
악용
군수
가증
전당
공산화
##망신
대중교통
싸그리
##내년
돌아보
화장
##일당
지긋지긋
순천
##월드
무사
무척
##여기
뛰어들
구걸
조달
분량
진압
총재
시야
##조의
할려고
지낸
구성원
이탈
케이블
전범
상자
##넹
매진
##떠
##정지
북조선
표명
##항공
##전남
##36
돌아간다
##가들의
입수
##언스
달인
최강
신세
기조
##프레임
리얼
디자이너
힘드
##척하
버그
##포의
##방지
생긴다
태블릿
##타운
스크린
미투
동력
개척
##원인
재원
해임
실전
고만
애정
직권
소방
학자
내릴
연다
만기
##부동산
창작
사표
53
##언
주둔
주먹
재고
##발표
시공
한류
이겼
기만
음식점
오리지널
일선
노란
타워
##희망
##장사
농사
불륜
방위비
##현상
수렴
거르
유기
출처
##55
계절
책정
##토록
발주
##따구
증정
아나
성폭력
성경
##더러
왠지
##경찰청
실명
골목
식의
##더군요
질서
건수
FA
거울
도민
##멸
##혐
##화재
쇼핑몰
##떨어지
##해져
도둑놈
평택
지우
생겨
##투명
원유
가해
투기꾼
후퇴
크리스마스
##사원
줄서
##악
##공감
아녀
##폭탄
연료
##공동체
퇴근
##드라
형평
유아
##동력
컨설팅
##수입
포스트
고양
오피스텔
찾아내
초월
편파
운항
의류
무선
##오르
장갑
##심판
##단과
면허
바꾼
치밀
##랍시고
국채
애쓰
끌려
##겸
##모드
##왕의
##윈
시상식
창원시
애미
##상대
##경남
신장
선조
안드로이드
##ㅊ
상의
##~~^^
##절의
##중학교
몽골
##박스
연루
##으라는
끼치
독립운동
##전체
지난주
##그동안
뒷받침
##일가
##임대
송도
바뀔
##썩
##쳐서
결의
HP
유니폼
##생기
방패
로마
##무대
친절
##하로
주역
마비
##연기
##산업의
##남의
유전
##판결
##노트
"(
급등
드론
##심리
가맹점
디지
늙은이
일본어
수작
출생
66
걸맞
##면의
##통령
흥분
##주행
김포
##젠
성희롱
독서
어짜피
해법
말자
제고
진리
기운
##위해서
댄스
##방해
문제지
음반
##가정
사로잡
##통상
숟가락
합쳐
##도민
##브랜드
이어진
##간담회
페스티벌
터졌
##개의
##입학
##전환
통일부
63
##지식
##될까
상정
언행
##ㅁ
##주간
구린
##밤
##페미
##ｍ
##센
커플
##술의
바꿔야
##혈세
말리
살아온
아름답
사세요
재학
정무
과잉
편이
밀려
유로
일러스트
편들
##00
첫날
##수출
##린
##서민
술집
자격증
중시
유래
##당원
##대신
원수
음원
위탁
뻔히
##슴
위원회
트랙
##고시
##2015
입대
우유
혈안
##갓
재배
준다고
영남
신부
장수
국경
영양
입이
##공기
##고교
김정일
메이크업
해설
배당
의정부
되게
색상
##찐
##대화
##강화
##쏘
##낭비
##차려
동아리
사라져야
훗날
들어와
그니까
무언가
보이콧
급격히
전방
크루즈
포스
##돌리
58
사업장
커졌
일명
##는군요
주작
지냈
##해결
##은의
열악
지리
##",
##마라
탱크
소셜
72
변태
약물
##기계
박원
##나와서
마주
##박람회
LH
경찰의
플레이오프
헌신
결승전
취직
트집
계정
불펜
소릴
##대우
인공
성사
주적
작곡
갑니다
상영
연일
수년
##사과
##실적
감면
중복
누릴
화살
##부담
문건
김정
##발의
1970
소규모
##취소
##설비
상용
##니까요
그다지
에어컨
압수
##나쁜
오세훈
망쳐
##다물
탄탄
외출
임종석
이나
##토론
##이미
##설계
##담당
나타냈
##퀴
퇴임
원망
날짜
별거
##셜
빛나
##산업단지
##드립
##인도
##무장
##마당
명문
방한
규명
##공천
지침
##엿
##교실
약화
언론인
방구석
견해
##성능
결성
원리
##장과
시술
동아
편향
넘어서
##설치
##간질
##수원
즐겨
##줘야지
미세
여사
LTE
가르쳐
##빛
##내리
##난리
##토의
벤츠
미성년자
아이콘
솔루션
건들
수명
수분
당선인
하이브리드
다이어트
##진영
새삼
원내
##마켓
##경쟁력
##처음
##낸다
김정숙
수당
감지
사리
여긴
503
파산
요원
백인
##키우
공수
##거품
수위
백만
##렴
안희정
쳐넣
쪽발이
##분양
고속
관련자
기쁨
마디
증거인
후예
##택시
줄어드
푸른
57
##단체장
##38
한도
배송
끼리끼리
단원
방송국
원활
##이것
##할머니
##주변
##상담
관료
경로
쟁점
##건물
자폭
멍청이
##2012
##불의
보전
##구성
뭘까
천박
리모
공지
명박
창립
경찰관
입점
낙태
수영
형편
유효
눌러
기량
대략
##전부
출간
##주식
##생겼
##주기
휘두르
전신
파면
우연히
순진
북부
헌금
학업
##통제
성숙
##부도
매월
정통
계급
110
##창출
먹거리
##그래서
빌딩
일일이
리스트
##먹이
##랏
##하위
개검
선보인
##케이
내달
듀얼
음주
##요즘
원료
고장
후원금
##지주
고도
MC
##자연
들통
망상
형량
당선자
지지층
기금
담당자
촉진
개그맨
불량
제어
##이건
관찰
##요원
큰소리
##사와
##.,
신축
##콘
##종자
인접
조리
##T
노벨
권유
블랙리스트
내신
이완용
##LG
악수
시가
##음식
원거리
##바꾸
##림
보태
##군데
법의
절망
국세청
##아베
##지검
포퓰리즘
##수록
##는디
##전국
쪼개
##수요
굴리
##게끔
##고선
##록
생산량
엘리트
##감염
여왕
##파탄
##려던
##보스
##타가
도데체
계란
기울이
품격
포럼
금강산
레이스
2030
욕설
##투기
케이
통산
sns
kt
The
이른
안경
친문
동결
일개
##아웃
유연
개시
밸런스
북구
모양새
접목
개한
카톡
선장
년놈
부수
##라네
##컷
##유치원
목록
##멘
##소비
##걷
##업자
공방
밝혀진
아무튼
##권리
우세
억제
입단
랭킹
상권
계단
##체크
기습
지상파
부른
##것다
지적도
##울산
##빌
1995
영감
##육
나와야
그걸로
정계
##루타
나이트
용산
##영
##2016
관대
간편
살아나
##캠퍼스
장담
##라더니
컨텐츠
창단
6000
손자
불황
수차례
합작
똘똘
출판
##대선
염두
82
##기가
##놔
##내의
풀리
##소설
전격
##쩝쩝
베이스
협회
공범
장모
더구나
통치
##기본
마산
##집안
##응
지식인
##아동
##37
##스킬
정화
화물
이라크
##나무
생활비
집사
##코드
여럿
##코스
이례
지금껏
행적
##아빠
그림자
##일수록
목격
콘셉트
중견
##함의
저질렀
##기금
경찰서
높일
##엔터
일요일
가전
##한텐
쏟아지
귀걸이
##푸
발전소
##뭔
천천히
보증
##챙기
갖췄
결단
개미
고령
김성태
반전
##적자
섬유
##시도
펼쳐
모독
면담
##될지
에게
폐기물
##면허
식구
DNA
세균
도망
발효
모아서
목숨걸
구석
##소나
맞음
방학
##콜
KTX
##광역시
대입
위생
호감
건담
카운터
화합
스카이
##벗
슬픔
한가
개신교
##강사
요건
기쁘
##총리
##환의
##천의
배급
예쁘
비호
딜러
140
내밀
로드
사라질
##텐
##ㅉ
막걸리
예금
##넷
##잃
##빡
조율
##매국노
동아일보
악랄
##쌍
복무
레알
##물가
몸통
분기
낙선
##400
저격
##단장
변형
치료제
캐스팅
마법사
불참
##종일
관광지
일주일
재직
출제
항공사
가드
낚시
선별
쓰래
##종북
##제기
깨지
##타자
중지
##근데
수두룩
회전
금품
집어넣
음모
광우병
발판
통째
편히
국면
##어떤
골든
##39
불공정
공화국
돼야
관할
625
커서
##애비
##순환
코트
숙청
원본
부류
##박이
떠올리
##2013
손학규
##농구
##극장
원화
##2014
##청사
밝혀야
맥락
이쁘
##인지라
추산
아트
협업
##여도
##빠지
세습
김종인
합성
잡혀
##공약
스킨
##타수
중학생
##허가
증오
##특위
제법
글자
##튜버
빠져나가
급격
수상자
돌아갈
##비서관
지르
##럼
##둥
구할
##준다는
##드만
##작품
무난
62
##또한
동화
사라져
보강
정해진
##무능
전장
관중
##2010
##들어오
다짐
튼튼
올라온
내란
지대
던졌
기구
싸가지
나와도
방면
예산안
러브
가족의
협정
지만
적화통일
##진단
##국회의원
기절
##개정
면모
##전원
##렉
포착
공조
박쥐
디젤
지면
하느님
##42
짐작
##심이
멋대로
##케어
승용차
거둔
##끈
어처구니
##L
몸매
기숙사
##을라고
##대도
##아래
불꽃
클릭
##의견
빼먹
유료
고사
감찰
인테리어
커다란
##김정은
올라왔
##정치인
##목사
주석
변했
##소프트
복장
돌보
당당히
이뤄지지
태어났
페이지
염려
##더라구요
기용
##실의
접하
팍팍
보컬
여신
특별법
출퇴근
##성적
98
##을수록
##재판
놀랐
상환
박차
그립
승점
우호
심심
숙박
##점수
스쿨
##예방
##랍
끊이
##재난
왕국
##라기
실드
##조합
여동생
교황
##소서
##용지
빌미
선제
##p
제치
곳도
용량
주재
##꿈
속국
결혼식
권위
할꺼
행성
##으면서도
##바이오
##논
##꽃
##관계자
치솟
출현
더욱이
박살내
하차
마운드
##완전
편견
##작정
핵실험
브레이크
반란
패러디
적혀
손흥민
명예훼손
창문
##지표
##공제
##~~!
##보고
1996
동상
##과거
강자
기아
환수
##늘
코메디
##유럽
##노동자
착하
개관
재선
1200
##데이
##킬
선량
맞벌이
##쳤
##탄압
자민
가져오
##료
치료비
지켰
##47
##렌
순환
##수단
발탁
불신
이뤄질
88
##해외
끝판
고립
실컷
트럭
동행
엉덩이
부끄러움
개구리
##으셨
찾아오
EU
무렵
화해
##영업
우익
생생
다룬
파격
##슨
라인업
물고기
파렴치한
표본
친하
성역
##야말로
피아노
기상
##만든
##퍼센트
세련
##섹
육박
무단
1994
축적
BMW
##영화제
못지않
눈감
##전기
##더불
백악관
태우
##으니깐
##유총
##가진
##능
##색기
여러모로
결과물
친한
합당
계승
정치검찰
어쩌구
##루수
##44
사고방식
사이즈
##룩
앞날
모름
등재
평일
##재생
마침내
부정부패
적립
##재료
##계좌
챔피
물어뜯
쳐다보
하시
아무렇
레이
##가수
경찰청
김영삼
어린애
내뱉
##점검
당의
##합리
미흡
용돈
찾아볼
밀집
유물
공백
의자
##매국
눈깔
최후
##방어
몽둥이
양극
추첨
소니
지장
##운전
성립
타이어
##」
##한다며
지형
감사원
##결혼
낸다
어려웠
##유기
##모씨
틀니
처치
매니저
##인민
##교육감
행진
정성
특별히
##'.
크로스
달렸
대개
상품권
구출
##황
주고받
터치
잡아먹
프랜차이즈
68
중형
애국심
썩어빠진
윤지오
##지지자
야동
##롯데
kbs
##듬
다치
부산대
##테러
친척
달라진
##43
국론
냉장고
##징용
역임
맞춘
방통
살길
싸워
##거늘
패시브
##였을
나불대
군림
##수저
집행유예
##글러
받아들여
달려들
삽질
무효
히어로
동점
##800
법조
망국
##군수
무고
지저분
관통
##근무
파주
##투수
트레이드
히로
##배치
##농협
낙하산
만일
데려가
##^
굴욕
##실패
##규
쿨타임
전철
##장군
투구
웹툰
참모
소방관
##부와
##사격
장난치
마니
살릴
고시
라이프
시발
배신자
느리
자부심
넘쳐
침투
먹히
안양
끌어내리
나발
시궁창
##갑니다
남조선
민중
##나갔
치안
GM
주간
영주
##빨리
눈빛
더니
가져
##어떻
김문수
구사
무인
아르헨티나
잔치
##다리
##연장
##41
나타난다
자리매김
관계없이
##49
해안
그랜드
도서
토끼
##2017
시티
실감
##SK
강력히
들어와서
##거래소
##54
노골
피우
##밀
고로
연이
Lv
색기
열릴
대항
##사정
##자니
청춘
표면
##광
비참
##식당
제명
채로
보물
바퀴
개개인
장교
##비디오
##고발
##농업
군부
##료의
견디
넘어섰
##보임
키웠
##쓴다
##경기장
미드
그래픽
퍼트리
##구도
수질
##했으면
##부에
##IT
오른다
##자라
##해선
범법자
둔화
정의연
유세
척결
냄비
정한
##개돼지
떠나라
##구매
67
바꿔라
##성향
입히
##그램
세수
비타민
경기력
살인자
비자
연예
##추
##더니만
이뤘
아티스트
재활
면역
##46
안방
오프라인
##처의
##얻
합니까
공매도
늑대
##비들
함유
찬스
놀라운
비방
##명령
규탄
##?..
피로
##해제
##놨
##선택
아산
법치
요금제
야생
##대기
손쉽
##FC
##토착
##유치
오너
##구간
##매일
알렸
총수
청렴
##2011
보병
##나마
기관총
출력
##공작
##엘
즐거움
신이
던진
총살
채소
닥터
##다의
실화
시킬
철면피
##릴
비해서
생선
저출산
공격수
초보
가져다
##파괴
일으켰
법과
##견
##유정
##노릇
##네트워크
##상관
음료
자처
일본군
조별
KBO
##디언
앵커
발간
오페라
타선
두루
사료
##여름
테이블
##스마트
주권
사라
장거리
부도
제동
##지부
노트북
혐한
적대
불린다
비결
천사
예쁜
##고나
동선
슈팅
배워
막강
##국수호
도주
##언더
내게
발병
유혹
편한
사운드
육체
##질서
숙소
##매수
성금
유령
호수
실리
##쟈
고래
연비
달래
기온
##병우
보네
라이트
##공직자
내걸
시켜서
혈액
일으켜
관건
##중소기업
##데로
61
##아침
77
##@
기차
##co
160
습득
레전드
119
해운대
강렬
##뻥
덩어리
남발
SM
야비
키울
원주
폭파
돌진
단행
아까운
여학생
##600
한자
접근성
##회가
끌려가
한몫
##기도
징글징글
대법관
##56
볼넷
문명
즐거운
원에
##여건
시리아
오마이
자사
넘겼
펑펑
우방
##경험
우울
불통
##과목
출구
##장소
호기심
##등의
요약
##촛불
두려움
아카데미
안락사
##을걸
##타의
900
##51
논하
##뉴
만행
##가짜
##쿼터
증대
스튜디오
설사
##불매
겸손
나빠
키보드
세미나
버릴
##옆
삼진
반사
##냐며
오디션
도모
##덴
사인
##이여
하청
기르
환승
까불
##업종
판타지
##격차
##변경
멘탈
##53
##랍니다
74
##벌레
와이프
8000
기점
상점
네놈
##망의
##헤
하루하루
##범위
타협
전투력
##언제
열풍
과세
76
무거운
##큐
태평양
쿠데타
##군인
농성
##랑께
고리
통신사
호랑이
모를까
수여
플라스틱
##리스
토로
##매치
주축
##사리
기증
벌리
결말
간사
뿌려
건축물
구제역
##위반
못난
##자녀
우대
##㎝
선수단
양파
정준영
##그것
##깔
##학부
토크
박통
##쿡
소유자
부착
게스트
##중요
도리
봅시다
##축
##소녀
연쇄
드림
외곽
##마케팅
귀가
이집트
##다르
##취업
##해운
양념
##삶
##유학
연평도
파장
##휘
대학원
##향
사살
급급
면세점
전인
강해
천연
고액
모니터링
##말아먹
##개소
좌절
##구청장
모험
이모
막지
은근히
사원
##철
들어야
##인정
이걸로
단단히
##완화
공단
청장
##피해자
나치
##부르
##노선
펼쳐진다
##방학
구청
공무
가요
##미술
모션
역풍
AP
스파이
##전력
판매가
합치
##호기
경상
장병
생애
종사자
만점
##둬라
신뢰도
도장
##전시
매크로
##59
게재
##계속
당기
압승
정년
간혹
부총리
호도
내세워
##온다
틀렸
컨디션
달라졌
키운
##문학
과거사
임상
신형
수원시
어두운
71
##눈치
##즘
과태료
세포
추후
##버전
세끼
슬픈
이어진다
수강
돋보이
보건복지부
지나친
죽여야
##미술관
제휴
##튀
채무
대치
오사카
노망
##보네
랭크
올인
##일까요
책상
머리카락
##증거
##로봇
##보고서
##인데요
해경
실용
##부인
##경영자
엔터
자매
떨거지
극히
불의
살림
랜덤
##불법
검거
스승
화염
승격
크다
과학자
도청
##댐
한우
뜨겁
배우자
##좆
잉글랜드
##침체
양식
소금
##홍보
폭주
이은
우울증
똥줄
##샵
##지점
##영역
돼서
##그대로
동지
##균형
##가장
동맹국
##결국
여인
##사유
창고
대원
##실업
결집
실세
##복
7000
##제대로
안녕
##방문
내장
##근로
끌어내
성질
고양시
동쪽
인민재판
흐리
##동시
갖춰
MB
우와
악재
유산
거야
북측
##노무
##와대
##병의
##임명
신자
국산화
##2009
분할
##노예
접어들
대단히
신한은행
구형
올려서
좌석
권장
다채
2500
레어
##티어
파트
미련
흉기
##대에
##갱이
마이클
시내버스
##걸린
소집
상시
엉터리
안건
##정적
간신
제보
저하
##01
##샤
이어져
보상금
##나눔
천막
쿠팡
똥물
##일부
허나
시집
들먹이
##벨트
후반부
##에스
사탄
보좌관
로고
걸린다
커질
용지
이중성
##회계
경위
라운드
##륜
##공산
궤변
따까리
##짱깨
쾌적
흉내
겹치
키스
플러스
어기
훈장
원이
자의
모래
만하
No
버려
##은데요
주둥
##창업
써도
##선진
인명
로또
침대
의전
##물량
신혼
회동
##보증
중증
##드림
유착
선보일
볼거리
데이트
보입니다
느껴진다
억압
OECD
세비
##검증
간격
롯데마트
##대중
##해당
##앉
씁쓸
변호인
##품
투자가
엄한
임진왜란
##주의자
오줌
동서
##수급
처방
시속
해온
##증가
##목
##57
김연아
##스레
마력
더군다나
남지
##75
달랐
쓰러지
소독
이색
##그때
##당한다
##명단
승차
양측
##콘텐츠
##생태
돌아갔
학위
버릇
##자랑
풍성
블록
부재
박사모
##."
버려야
만지
치부
케어
나옴
##분립
##어벙
##부지
까먹
응급
##블록
기상청
##힐
##요구
외국어
##클
##준용
##노무현
##우주
세계관
간주
급락
헌재
중소형
##리조트
소울
추한
개표
세제
사자
응징
힐링
거시기
기다렸
서쪽
총알
캠퍼스
기껏
독감
69
필살기
사양
빼놓
탈세
줘도
##폐지
현혹
살피
파란
서면
비서관
영세
우즈
지롤
고졸
조짐
##제공
##시점
MVP
산책
장인
바가지
성장세
##졸
입당
사재기
##정원
##더라면
밀어주
오토바이
쓰인다
고조
##썼
쳐도
전복
##영어
학문
##그림
##군사
로스쿨
##유가
떡밥
누리꾼
종편
덩치
##러시아
##유출
트라우마
우동
형상
학술
상사
##빠진
부근
국감
인체
제자리
입건
잠수함
아오
때로
##뷰
용이
아르바이트
차명진
휘둘리
헬스
##새끼야
폭격
간절히
##뿌리
아우
##시각
##키트
놀이터
##잼
특집
응시
고가
교민
전진
건국
교복
레이더
산림
##제작
어린아이
##원칙
올라갔
여군
##65
##꼭
페미니즘
말기
##여고
항만
실책
김원봉
신차
##판단
체중
활력
부합
넘어갈
##중계
소폭
우려먹
돈벌이
마귀
이메일
##공공
##봅시다
##애라
파문
##셔요
잠잠
##교과서
법인세
농장
풍년
이듬해
교원
환호
한발
총회
##군대
청와
가성
귀한
힘쓰
강좌
오리
되풀이
##도움
스타트업
##강점기
##망치
러시
##려다가
촉새
##배의
##하늘
스타일링
##얼마나
메모리
귀엽
외고
파이팅
조공
유능
바둑
쏠리
적반하장
##제주
##팔아먹
##폭행
일괄
장난감
기성
##고리
##맥주
쌓이
##58
##진이
논술
산업단지
국외
국력
히틀러
스럽
조세
##줄께
##혜의
##패의
돌려주
##소비자
더러
깨어나
가담
동포
만성
##채용
뭘로
던데
강용석
안동
##내역
WHO
생각없이
재수
회상
군산
##어린
건가요
우물
##2018
수비수
용납
홍위병
조회
단합
##실험
챙피
포격
근원
골키퍼
져야
##련의
반감
등극
달콤
숨진
등산
##h
탄소
열려
미스
##없애
전성기
헝가리
다저스
펼쳐지
지민
가축
은혜
##양심
##사인
급감
##인재
피자
##웃기
단말기
들어도
##불안
수확
사라진다
며느리
분단
##디스플레이
거나
외형
##멀
이루어진
##구장
사설
통수
진전
;;
##선물
프로모션
근절
바깥
속의
##국적
들이대
골라서
차장
##차릴
비추
지문
건네
하얀
##컨
태극
초창기
##파워
중부
##개편
##터진
##스러움
##독립
##았었
후기
고지
어그
##무리
수백만
허구
털리
가라앉
이빨
열쇠
1960
떨어뜨리
##주한
##감독원
복용
##픽
연예계
걸림돌
빨아먹
천주교
##보험료
승무원
공감대
일제히
전향
##교통부
왕자
##라이트
##호가
##모집
73
머릿속
차려
##세우
왕복
한국은행
넘어갔
##말씀
##음에도
##신용
처참
웃겨
페이스
##원도
##아버지
##렷
유신
항복
##올려
350
운송
할매
포수
들어올
관심사
흔한
##폴
신문사
버틸
##PC
업소
1988
개고생
밀양
비치
매물
여겨
97
신성
대조
회식
인터
사귀
절약
어렸
오프닝
일찌감치
경영진
육상
강대국
##담보
심히
##쌀
논평
##72
체류
일삼
반환
본토
색출
레스토랑
제임스
나팔수
##재인
포스터
##매체
##투자자
허구헌
방출
교훈
창당
사물
사령관
프리미어
속내
부임
LA
##H
쇄신
##학
대지
인질
가뭄
누군
입금
미달
보임
##라지만
청정
참석자
충당
베테랑
장본인
##레이
우상
##헌
##직업
생명력
전멸
마라톤
늘릴
주방
##읍니다
가죽
파이터
##어느
숨겨진
온몸
##촬영
경험치
치졸
부적절
##로드
사흘
과실
##본데
프로듀서
인문
띄우
단단
##O
##줍시다
모니터
마침
직면
##이명박
수십억
카더라
분배
셋째
울리
힘든데
내역
##²
터질
포토
name
맞붙
표적
##지급
숙제
검출
##벨
추신수
도라
관장
흡연
중의
본능
실검
##라고요
자업자득
부드러운
무겁
대국
공문
하락세
에스
##랭
##색의
행운
##지지율
##찬다
국도
##이해
자비
화상
속속
96
세입자
주유소
콩밥
박지성
##과세
##그게
권총
태영
티셔츠
보충
끈다
이용객
부스
주어지
##E
##머니
##할땐
##약의
듯이
어리
##독
하천
늘어지
왕조
##부서
귀여운
어지간히
휴일
원흉
##복의
##할까요
흔드
##할수록
##트럼프
##말의
극심한
임용
##인하
어용
기밀
질투
퍼져
해금
박람회
꼬집
성지
재킷
##수학
지자
원자재
쌍둥이
이상황
끼워
##보유
저래
##라라
##형제
사주
미분양
##해야죠
GDP
개똥
내외
검열
사막
##공식
최우수
##했어야
##인해
퇴장
뭉치
##비판
날렸
호들갑
##열차
소스
지극히
가로
사교육
사회악
##고급
미미
##위치
전선
##력사
##양아치
가야
설득력
##룡
##팝
##최순
##할걸
쌍욕
##신경
##절대
미드필더
##대장
잠정
올라갈
발길
독려
한결
녹화
후반기
발끈
판치
이치
##발생
##푸드
##돋
이랬
##전사
##결제
##묵
역설
기피
유학생
이력
78
확립
텐트
타석
환불
나랏돈
눈높이
청사
총력
전과
중산
##로다
##연수
##간다고
##갤
에코
센서
광명
SUV
메이
싸이
잡힌
##읍
아작
물어야
지역민
아휴
##예정
몰수
태워
86
1992
늘어놓
##회수
손절
화폐
##폐기
자택
##자꾸
우회
물의
##혁
홈플러스
중국어
남용
애플리케이션
간신히
내의
챔피언십
인센티브
##하루
jtbc
선점
금연
##건만
공고
급한
계신
배민
##세여
##송의
##번방
##자가
물갈이
호칭
달려가
손목
모가지
##99
빠질
실효
변한
##빅
퍼뜨리
##xx
드라이브
도끼
가톨릭
증폭
단절
하트
저작
##조절
##패션
명확히
호황
##가로
170
거액
진도
단편
몰카
##아가
돌렸
동향
멸종
영문
##길이
##FTA
관상
재계
작곡가
종교인
##제목
##평생
트리
이어서
개도
디스
##만족
악취
타락
저조
##사법
도요타
교묘
제조사
##남편
리조트
일기
퀄리티
##세운
안산
##파티
키워드
##규정
##웅
잡혔
엄연히
섹시
책임감
궁리
##농
실형
##댄다
##내내
공존
##랫
도망치
마음껏
경제학
바래
어색
장외
사용자
설령
##~??
자손
##전당
감자
##걸음
신앙
##니스
##거짓말
금수
##포스
클라우드
저급
##주장
꼼꼼히
이긴
##홍
동북아
##거기
##전용
##더라고요
장기간
##셀
##요소
##시립
##장악
욕망
듣보잡
바이
쥐새끼
신흥
획기
##박사
바뀐다
리드
올라서
바짝
##납니다
##시리
##수산
##대단
훈훈
##슛
가혹
##시내
삼성물산
##줄게
##게나
##렙
갇혀
##무의
무실점
가치관
수산물
박근
안민석
친분
##가를
욕구
##위가
##중단
맹목
백제
봐야지
번의
##닌
양자
폴란드
자위대
##헌법
수월
교역
천하
간다고
격추
81
원금
신났
##기인
탈취
##워치
1993
##페이
나간다
패밀리
##침해
부드럽
##늦
##롱
근간
액수
##확대
오바
##몰라라
섬나라
##산단
걸친
방위
그리도
##발광
##㎡(
자란
##복무
파도
무적
야기
역쉬
##흥원
##×
코어
##욱
사도
그래요
##밴드
모자랄
폭풍
보정
##사회주의
잡아내
터널
남미
차이점
해병대
상속세
아닐까요
94
##부자
##84
산정
늘어난다
##I
뜬금없이
차트
찔리
걸까
##외국인
축내
법관
경악
##기부
비열
무사히
##추천
##닉
CD
##타이어
통영
정점
공룡
편드
##원은
##기대
어필
이리저리
시켜라
92
다가가
떠올랐
펼칠
드라이버
이상인
##선이
발령
빨대
징징
##항의
안쪽
드러운
완장
크림
게시
과자
보이스
소극
##송
시바
##재판소
##타임스
정신과
침공
나불
누워
##였으면
실점
"'
##벤
##쎄
##뭘
변해
##융합
당첨
희귀
##의학
구름
##대금
긴장감
잇달
보답
흘러
나노
##㎜
혈압
##기소
변질
넘긴
87
보낸다
##딘
##배운
TK
지갑
추운
빌붙
다툼
##핑
뷰티
영부인
분신
##미일
##바다
유망
##굴
##인방
내려와
##댈
싸지르
옮겼
컨테이너
약세
##벤처
죄지
##그랬
##여대
제의
##역할
표창원
옥상
꼬투리
##할거
깃발
아일랜드
떡검
##본인
설레발
##건축
타이
##승의
##F
DJ
##스가
##진출
팀원
내년도
쌓여
철새
일안
STX
감금
##64
행사장
터뜨리
##활의
알지
실버
LCD
일조
빨개
안달
로맨스
알파
온실가스
산업의
##화폐
수억
##봉사자
올라간다
반문
인맥
##아닌가요
화보
허브
스코어
짓밟
##논문
격파
엘리베이터
승자
##활성
참여연대
고마워
버디
##맹
낯짝
인제
실물
지붕
##떠나
후유증
##밸리
to
##틴
지휘관
몰살
한은
##동이
하태경
골수
##900
연초
사학
연내
##청정기
발사체
##롤
뉴질랜드
특전
##써서
##볼까
보람
외쳤
나아지
##놔라
품고
후임
##방위
암울
학기
##언의
##그린
##믹
갑시다
관내
잡것
##확보
교전
몰아넣
셀프
그토록
일체
성형
본보기
##구라
통계청
생략
##700
##간당
열매
##벼
개체
안티
속한
요양
단호
주어
##ㄲ들
버린다
나타날
악기
들어선
대피
##지도자
성남시
방과
본색
저분
##숲
바가
찐따
##62
승률
서초구
##대해
##이젠
수직
최적
##채권
##대갈
##나물
아이러니
들으면
이인영
##전지
맙시다
파생
##혼
과하
컴백
콘크리트
오지마
##전선
MP
그해
뒤져
볼트
##종목
황교
##위조
떠넘기
사소
저의
평타
돌아올
특강
한눈
묘지
스티브
##수다
메카
내각
##실력
##관은
불러서
처한
함선
배워라
꼴찌
깔려
개망신
참담
소설가
##남북
허술
공헌
골고루
증설
##급식
갈리
시에
여름철
제작사
취업자
폭염
가르
모른다고
설쳐
##깡
양의
치른
이따위
영화제
비대
철판
저년
표창
세탁
##
상세
담임
##학대
##해석
##바랍니다
번지
찔러
##도청
##강전
탐욕
까닭
라이
활짝
수감
학교의
쓰레기통
센스
자주국방
늘렸
망가지
자립
직시
##막히
브라
맞대결
##광부
##안다
표출
in
소망
내라
##시계
노동당
기동
침입
잃어버린
조로
##바보
둘러보
##어가
에이즈
학부
올스타
##속의
루머
산소
확고
고심
통합진보당
음식물
나을
##동포
##표현
##직전
##당장
##선전
##침
배분
표절
EBS
##테크
상속
군단
농림
드레스
##포장
지원자
선원
개수작
스키
중기
돌아와
신재
##요청
상원
너거들
개막전
왜냐하면
##연속
83
클린턴
1987
1991
열등감
의해서
##으냐
##편성
전례
통로
걸음
무너졌
벌여
성범죄자
보험금
시행령
##의미
원피스
서식
빌리
##이나마
수송
안겨
##SNS
가면
증진
질주
저럴
챙겼
외화
휘발유
##비자
하하
##어다
##가게
해지
막내
정했
연평균
수순
심했
KCC
개발자
엑스
##감소
선거철
쿠폰
볼모
스프링
##클래스
저쪽
##수수료
##이기
금요일
치명타
다운로드
쏟아져
부칸
쓸데없이
알릴
전의
##아줌마
가뜩이나
##빌딩
쿠키
공연장
79
##했어도
차분
##준의
취해
분해
##목표
##새로운
비위
##강간
너그
찌질이
구두
과다
시의
##입시
서초
코레
##라던데
밝힐
##나옴
##정서
보단
여배우
만인
다닌다
교감
증가세
신비
비열한
호위
불출마
크리스
##보료
노회찬
동등
지뢰
##례의
운동장
생전
##회원
##ㅐ
소명
섹스
##대상자
독립운동가
저승
파이널
항구
모기
##옴
부양
교정
##상인
##구단
각광
현수막
파일럿
##중독
기념식
##봇
##태
집중력
##탄소
더욱더
자외선
##진행
##바위
##05
SKT
보훈
굴복
도널드
중년
본성
##지시
전임
이것저것
폭도
##?!!
선한
준다는
입양
원고
##석유
##두기
##대통
예민
강구
미처
##마련
##네여
과천
##라가
##보가
종사
접전
우월
##마크
##선발
##월급
##어선
##티비
팬덤
국민은행
폭등
미술관
부엉이
속아
##포함
##텍스
##힌
외계인
이준석
출세
와우
게이지
화두
IS
삼성그룹
사이코패스
##시당
##61
자초
생존자
##마진
NPC
외식
체질
앉혀
죄책감
##미수
준우승
도출
##겨울
##역량
##통장
정수
가두
상기
에라
어딘가
##토막
##타로
문희상
조립
서방
정복
##닷
치아
풍기
걸러
##㎡)
관절
기둥
##공신
내려와라
난무
뿌린
어지간
악영향
##버프
##실수
칼날
잠재력
우정
날조
##가입
##빚
##검토
서열
찾아온
사라져라
임의
##손실
그런다고
##노동당
##학자
##조장
우째
대사관
권력자
채취
수혜
태생
살아갈
##대왕
눈먼
시동
익히
머물렀
월요일
망친
수거
의리
##％
##탕
##뿌
##참사
새끼야
##다시피
지성
보좌
돌려받
자멸
커리어
##매출
간단히
대행
성찰
수련
법칙
##집값
리듬
유승준
##띠
훌쩍
끼리
##번지
tv
##어쩌
방문객
##너희
##얘
호의
가야지
캠핑
다녀
지루
##휴가
명소
살수
지칭
불명
찬반
동굴
##윤리
가까워
##윤
농도
전송
몰두
##불쌍
##기아차
고추
##놔야
견인
후안무치
가식
숨겨
약해
데스
한통속
맛집
경제력
직결
유적
민영화
리메이크
심보
무너뜨리
오케스트라
과징금
전월
허접
선명
##기단
동아시아
들린다
개량
착취
실사
석사
주입
##인은
특급
부메랑
##합
안다고
제사
오일
소용없
##웨이
자막
담합
순이익
결함
취한
접한
강경화
징용
##왜곡
찌그러져
##픈
계곡
살만
용사
파이
가져야
##햐
다큐멘터리
##조성
오지랖
국기
받아들일
하우스
해운
절친
텃밭
몽땅
설리
축복
##지인
방탄
야구장
##차관
##그러나
무제한
##전공
멍멍이
##인데다
왠만
여행사
유예
왕창
이대호
속출
허허
##코치
입문
남로
##집니다
이뤄지는
원한다
유인
가이드
감탄
다이아몬드
##킥
##신다
##동원
##엔진
빨라
채팅
지럴
상임위
101
수성
농락
##요인
##비씨
이뤄지고
기미
포괄
리가
시위대
##구기
##독일
움직일
탈모
조류
고구려
학계
다신
##회차
##서로
##어린이
합계
백날
마저
부르짖
##03
교재
악역
##몰라
##학위
공로
##스토리
##문은
꼬박꼬박
양승태
친정
##비전
노가다
줘서
##디의
반찬
##멍
##차단
넘어선
반칙
희한
##의무
##문재
##끼치
코인
##템
갑옷
귀환
외노
이목
카리스마
유촉
들여다보
동정
싸구려
인문학
양도세
##한다는데
호날두
들어라
마이너
무너진
고스톱
##손해
조준
##패거리
##노동부
##칭
가이드라인
딸년
판국
바랄
호재
##이가
##유로
원형
생색내
보궐
##톱
외제
무마
쓸모없
유서
노래방
줄였
객실
여섯
극장판
훔쳐
푸틴
충고
추위
##줄까
후방
##릭
##63
낮춰
미묘
둘러싸
##탱이
상습
번개
##지라
꾸미
발부
열일
93
##져도
고령화
##친일
몰렸
불화
차명
##CEO
##라구요
홍수
##라야
짜리
골자
애써
경품
보라
대법원장
고마운
단가
함대
완성도
학점
달라질
마찰
망조
##섬유
##운운
##토스
##라던
맡겨
사명
좀처럼
깽판
##고문
반기
오토
멈춰
##진실
타도
복직
##인자
이해관계
##도둑
##고기
군사력
##나간다
신사
##젊
##부러
무방
세일
정령
초콜릿
모듈
##구녕
##붙이
거제
치러
일화
탄도
필터
벗어난
##반응
올려야
##토지
자행
성조기
돌아섰
빨간색
평상시
이승엽
##아다
꼭두각시
의약품
취업률
적군
예언
꺼리
##통계
살인죄
최상위
렉서스
##불능
단정
모자이크
기승
##지내
종일
##일정
##중앙지
1950
벨기에
##학력
개국
톡톡히
아시
걸어서
디스크
무지한
경쟁자
글구
공표
놈의
출자
##추가
공모전
메탈
넉넉
싸웠
둔갑
돌아서
조원진
올려라
놓여
겨울철
##퀴들
부시
의구심
##로선
아스
정류장
후진
부친
장벽
약탈
스태프
VS
렌즈
백종원
##맵
다닌
##제국
지난번
응용
중위
한복
##바란다
우체국
89
##지정
불타
##부로
##쫌
유재석
졸개
1989
만의
##판정
고무
충청도
관리자
##철의
##기억
##2008
##모바일
##균
양호
##공화
아재
종업원
표방
모녀
자중
##94
와라
슬로건
삼청
유급
흘러가
줄곧
불쾌
나락
주어진
남구
##농가
포용
허물
수지
분담
입술
창궐
당근
##쳐도
다지
##경기도
##할꺼
##분과
버텨
고소득
경연
주름
씨앗
공적
득표
소각
체육관
##매장
행세
적성
##펜
##바닥
트리플
##난의
아웃도어
다녀온
##밭
##탱
드러난다
넓히
넥슨
##용역
##교육대
내정자
자존
폭넓
##수행
##터널
버려라
워터
##밍
징징대
시일
퍼트
베를린
첼시
원로
마드리드
퇴직금
##동생
한판
직위
##범의
흰색
임마
수천만
냅두
생겨서
자정
조현
보직
##이탈
다녀오
끌어올리
환원
틀림없
예견
펼친다
파급
넘쳐나
산학
방송인
해피
##고속
발라
신재민
##지상
재임
##그런데
열광
와이파이
사제
##자살
여주
때린
스윙
교안
허수아비
인적
궤도
완치
막론
91
##스토어
내려야
실은
##고사
동문
체인
##비교
##자율
줄여야
절로
##감각
더위
유나이티
홈경기
방가
불로
과반
##합병
기리
이식
경관
견주
##이념
장하성
업주
참패
##당해서
##아저씨
방관
##대국
원격
##커피
우아
악몽
안습
##반도체
자네
##EU
고위직
잡아가
##나미
##씬
##이놈
폄하
노태우
적힌
##모음
김건모
##민간
출판사
보류
##V
무분별
보건소
망명
##메시지
##시행
##풍의
챙긴
112
막혀
토종
신약
거칠
임하
질의
통틀
끝장
합격자
내편
##경주
장난질
정신줄
대갈통
정유
느린
밀어
##어치
고성
탱커
재해
기법
##신가
떠날
음모론
민선
중심지
정문
떨어져서
회생
##근로자
치과
복지부
##봐야지
##돌아간다
##기초
##걸려
울트라
옆집
맞춰서
##검진
쓰레
연합뉴스
##연전
##강남
가릴
컬렉션
##조선족
##낀
성당
##홍어
능가
격투
송금
사우디
전세금
표결
악당
##대체
따라잡
단기간
##키가
바꿔서
처넣
축산
##려구
##상도
손발
##인프라
품위
##국정
##보조금
##숨
쓰리
##단속
단백질
경제성장
이쁜
평이
내서
일으킬
경원
상상력
창설
떼쓰
##출연
##연봉
압축
##시원
원한
##철학
메시
##바이
##박계
아까
정세균
민망
공이
##수상
아따
상해
국책
처우
##결의
##소득세
신작
포트폴리오
관제
##소수자
##복판
광복
##들이
경향신문
묵묵히
광범위
##방역
꼼꼼
보금자리
종결
강성
붙인
의석
공정거래위
사임
표지
띄워
YG
매직
##똑같
사직
참신
##덱
##자세
낙마
거듭나
##꿇
염원
금태섭
and
##차장
정차
##랭킹
터미널
돌격
여력
증액
##만세
기회주의자
후계자
까이
판단력
감이
##점유
##잔치
종로구
태세
##냐구
버림
정글
##진다고
향기
종양
##스스로
저랬
정정
mbc
밀접
도태
##근성
각하
##년놈
##특정
동반성
##자도
##소통
##동기
올린다
싸잡
딱딱
치루
벌벌
혹시나
까라
개소
##냐면
라이더
##는지요
##소환
##자문
전문의
납니다
반지
주시
덴마크
닭대가리
뒷돈
반값
다투
니미
털어놓
여정
준표
미사
##~.
조속히
특사
검경
교섭
허경영
##승인
정반대
단연
적국
박살
조조
직구
차체
상급
아마존
지워
밀어붙이
##리아
검색어
의정
띈다
##닷컴
짜장면
##수호
외압
##라지
##원자력
무소불위
서둘러
판문점
대의
혈관
##기존
연사
##식구
##녕
성장률
옮긴
공제
벤치
##우수
무례
##지진
저절로
##진과
##시트
##저의
좌지우지
면역력
##영웅
##기업인
##규칙
##널
##콘서트
##보안법
##마드
대검
선호도
한적
척추
권역
##무죄
##IC
##인디
##서류
##성공
칭송
대공
##직의
의존도
명은
##행진
##붓
염증
##질문
글쎄
그라운드
##담배
질타
따름
겁니까
두들겨
카지노
세이브
언덕
##만이
가늠
경신
하지
자빠
##스쿨
본명
연기자
##혐오
금전
##수첩
##돠
그나저나
의제
처신
##야드
생각난다
모르쇠
살린
##줘요
##경의
##속이
정교
아사히
악법
당나라
계엄령
대마도
##팟
피격
내전
만루
재즈
차종
##었었
실어
전념
남짓
즈그
점거
무승부
달려드
드러낸
독선
임산부
##응원
선택지
##흥국
서포터
##친일파
메타
사회생활
##엉
태클
동경
물려받
##럽
유의
##운의
##회의소
학년
캄보디아
뒷전
콜라보
버락
내버려
만찬
##업과
수류탄
흠집
소액
컨소시엄
수신료
전이
뭡니까
상종
##빙
끌어들이
##읍시다
남측
넘어지
성과급
##관이
ICT
전가
제작자
##는구먼
##교환
포부
##면제
두뇌
##08
소득세
조문
북송
수수
##혈압
꼴리
여행객
##권단
표가
검새
적임자
각본
불렸
필름
검정
##지하철
도무지
tvN
하소연
보증금
드문
YTN
무늬
발등
##표시
생체
##닦
만료
치사
##노래
쌓인
대포
나와라
최첨단
##쩌
이면
##위안
국가원수
##최대
불어넣
증말
색이
옥수수
##파일
버젓이
각인
##흘리
초중
색다른
아가
##문자
NH
##인대
김현미
코스트
더러워
용의자
##공고
호전
패러다임
##느냐는
##한다니
##목소리
##득
단골
스피커
대지진
회원국
##숭이
쇠고기
할리우드
유망주
##마력
마술
뒈지
교양
대본
시피
경사
##보낸
##셧
망해야
열폭
추출
일자
들려
##범죄자
북유럽
##차렸
지독
적절히
해대
꼴값
상공
판교
##능이
자백
기뻐
엔트리
타결
우짜
파손
##로스
올라간
풍력
##미달
흡사
##66
이석기
개수
극좌
해치
##변국
신원
만주
제대
도가
##대사관
선착순
학사
증여
예시
건설업
기업체
경질
##뀌
핵폭탄
군주
킹크
연임
##수와
간만
응답자
그러므로
교차
퍼부
위헌
섬세
연체
중화
##필드
총출동
##히트
##망국
뒤진
대부
##차선
##화력
##캠
##슈퍼
##W
대주
위인
##내놓
전교
##신분
##분위기
키즈
흔하
창구
총동원
일보
##85
빅뱅
우승자
##익
고등어
신년
##래도
비꼬
##게요
몰표
상한
살아왔
##화법
어느새
##웨
후속작
##우선
데이
##견이
##면세점
선방
뭉쳐
##스러웠
##을래
##등장
길드
##단식
##지로
태권도
##사령부
멘토
파렴치
메리
이기주의
인양
멍멍
위태
막아내
##프로젝트
이의
리콜
자아
##평균
##미당
죽이기
##셔야죠
##중간
강등
에어
짝사랑
파멸
개인전
미친개
인선
중권
초록
절벽
횡단
두껍
##법상
복사
노비
독보
헤드
##선거법
아이스
까보
##옥
##[
간다는
간식
##초기
가둬
어쩐지
춤추
이어받
##04
적화
효성
##요리
엄정
하원
##확진
나눴
홍영표
##도대체
악마의
줄어든다
수요자
양이
**
위임
세울
부려
또래
날린
발암
강국
스틸
##개소리
조두순
학생과
##스러울
무슬림
몰린
속옷
##하도
##대형
##더러운
##면접
##븐
키트
소총
힙합
우매
부끄러워
내줬
##찬성
막바지
복제
##든데
##아닌데
##섭
소프트
부역자
지친
짝퉁
남아공
카풀
민변
조선인
##조례
양키
관해
그렸
##회로
액티브
생색
무너져
포탑
##기차
벚꽃
박힌
니나
뒤질
죄질
전함
짜르
##비하
민사
국왕
숙이
##뛰
##창의
사위
근성
기침
##드린다
출격
서점
토해
숭배
승계
쓰였
날치기
페이
주춤
전일
##여라
##마이
천문학
공업
노린
뚜껑
발송
들어설
##e
##향후
만난다
##비시
##부총리
개원
수없이
박혀
종말
싸워야
##코어
##옵
##정의당
고부
##맙시다
안개
제왕
탈바꿈
##보전
사방
비로소
마리오
쪼다
군의
인권위
빈곤
소나
FIFA
세워야
구조물
##친다
##는지라
잔류
명동
잇따르
욕해
거인
출산율
갈라
##실과
##제약
결실
저따위
홧팅
##콤
UN
통행
##느끼
할까요
욕은
무더기
외의
알뜰
신천
코앞
희생양
민족주의
과언
송구
따내
장성
내성
대금
##표준
챌린지
##외국
##씹
고비
##정리
죗값
치즈
퍼붓
##목숨
차등
향수
가정의
유린
##롬
지켜라
OLED
##물류
용감
##스키
안전성
당명
미뤄
백배
유체
##사회단체
##67
##식사
##부패
궁금증
##페스티벌
##응답
##77
공채
##소릴
암시
살포
##라이프
속셈
산재
해야함
여적죄
몰라요
##예의
##궁금
##중반
싹쓸이
통역
소굴
##U
방북
##렸
영리
익명
돌릴
##속성
본받
온전
맞췄
##램
혼인
지킨
##만약
##모아
밥상
펼친
대명사
코믹스
일과
##저러
바르셀로나
리뷰
대수
##릿
으이구
찾아와
농어촌
글씨
##물건
##강국
때렸
맛보
항소
##공주
##전통
소고기
데이비드
동남
##마디
##’…
미지수
##일어나
##감과
니까
비명
미꾸라지
LNG
##렀다
허무
조종사
##굿
주구장창
##분쟁
##~~??
비트코인
밥맛
땅값
남다른
비상식
동전
검진
전승
##형태
서리
한다며
권영진
##던데요
코로
간직
정세
사케
페북
##증명서
이래저래
하와이
##상식
##GB
수사관
대우건설
##원님
법학
파크
가로막
여우
##우한
1300
가미
은메달
남경
말살
정해져
##다양
##폭동
황사
##눌
##아무리
##품질
파동
섬기
##아깝
비비
기종
계파
넘길
360
대일
##운동장
셔츠
앉히
순차
상단
xx
배워야
몰입
사각지대
극도
개꿀
캐주얼
엘프
예매
연명
예년
유쾌
말세
##투성이
장애물
##톡
시공사
퇴사
##락의
##부탁
액세서리
오리발
대리점
동성
##청탁
비굴
법위
뜻대로
교내
##71
화끈
빠져서
##정은
장례
##내려야
유난히
##가운데
##유아
우릴
맞물려
징수
포드
개교
##원숭이
머지않
사외
한없이
##연예인
아이스크림
신곡
월북
##민심
중진
분통
원치
쪽발
##천국
고등
조져
##예선
##이틀
고생이
원안
교직원
이건희
조이
##들리
과열
##하이닉스
지켜봐야
##우승
암호
##레오
단서
##캬
축사
##겠다
벌일
##더블
코믹
내세웠
##베스트
##불통
복선
you
##자책점
쫄리
마왕
성균관
하수
반대편
남매
보수당
##칩
입체
천벌
동성애자
배럴
나주
숙명
##비서
##뻔뻔
##대박
##육성
빙신
절단
붕어
방심
중고차
시가총액
목동
사촌
##내라
얻어맞
##감시
##학교의
이국종
##무섭
1986
##기로
수갑
법령
마신
##이스트
##할려면
##니라
세단
##보였
말려
데려오
밑바닥
내다보
경희대
노란색
중세
해변
개박
소나무
##져야지
##됐으나
잔머리
##추적
##거짓
개탄스럽
##훈의
두께
인삼
파이어
다스리
빌드
##09
히어로즈
이송
이룩
##교과
테크
상술
##해서라도
도적
쉬쉬
차릴
사이드
##무엇
악순환
##닥치
적중
본체
충실히
##휴직
##영국
##어야죠
드릴
살살
##한반도
달라진다
흘려
이북
처절
##68
쓸모
안면
is
누명
구상권
대주주
##악마
승마
만연
치욕
정전
동메달
돌봄
##봉쇄
섞여
##박의
앵벌이
##시인
##사무
외교관
발정
##뻘
가급적
땅볼
공립
공소장
##나베
주특기
##마법
침범
주저
플래그
##접대
이태원
릴레이
##06
고딩
어따
지음
##스톱
효력
겁먹
##대처
국물
##해산
극찬
##버림
##토리
##웃음
##는커녕
##덕분
요괴
원했
##~~?
심신
낯선
뜬다
유류
안의
##강제
삼국지
##차기
재기
##상환
분포
##그라
골치
##원회
##작용
당국자
##뎅이
케이크
##나경원
##95
##우스
##춤
경호원
스케줄
노화
열등
##화면
##디지털
매달리
전대
어긋나
##전투
천장
기업가
##제일
리서치
강했
가져온
##노력
##문화재
머니
갱신
무기고
##통하
안쓰럽
가나
우두머리
왜냐면
갖은
##다구
##나서
말년
##느낌
유네스코
위키
카이
##관광객
##몰랑
답글
##달의
취할
의협
팽팽
숨지
대법
OST
##못해
240
##립
##아무
불평
##권한
##앵
경직
예술가
곤충
도우미
진핑
하단
##느냐고
불허
승소
##조금
맹활약
소홀
놓인
조약
##소식
원동력
##!..
NO
구했
돌풍
유비
추궁
누군가의
투표용지
똑똑히
일한
빈부
벌어질
##69
치가
유치에
정쟁
독립군
날카로운
메일
저그
##노동조합
1800
합산
낙찰
앵무새
이닝
##조가
##07
쉼터
##❤
찬사
##고생
물러가
##씀
선보여
나뉜다
동탄
매뉴얼
##원비
역동
##밥통
가루
재건
평점
헤쳐
돼지고기
물려주
사이다
올라와
메신저
##문인
##앨범
##질까
튀어나오
함량
해준
리본
백업
비아
스폰서
추월
수영장
발걸음
망해도
저감
##가드
트윗
타국
돌아온다
현정
삽입
저소득
중상
##온의
재조사
##댔
산다는
악행
로버트
학창
뿌듯
##GM
바디
##측근
판다
02
##이미지
##잣대
찾아왔
##어면
##종류
섭외
득실
내려갔
##땡
우연
##주위
주니어
##이득
벗어날
##아녀
##위키
밝혀내
빚내
##기적
##팔린
오산
##얼마
성실히
##충남
##농장
##보육
구실
##밝히
김태우
난감
##뎅
##특수
노친
비트
##팔리
기수
다녀왔
묻히
형국
모텔
낙인
##텔
영하
바이어
공소시효
희안
반중
네임
##검장
참수
각지
속여
##수소
재차
##조각
노숙
초선
##공업
단결
##벅스
했어도
매경
누군데
105
디테일
##책의
##후손
나눌
자수
어선
손길
##궈
포로
고구마
##뮤
##수수
지각
본다면
##보안
##타입
양대
티나
묻혀
차림
횡포
패권
커진
만도
건다
타깃
국보
사쿠라
##대결
너무너무
집권당
##놔서
##적용
##놨다
산업은행
##국지
핀란드
전산
##링크
스캔들
한잔
벌인다
연도
거래소
유무
차익
요정
무작위
야근
태반
##개방
가라
##첫
압류
벨트
워크숍
연방제
##치킨
##자르
사노
논다
일격
##싼
붙였
국영
##간부
심재철
이뤄져야
당사
##모으
##떡
열흘
온천
코오롱
원산지
##시스
탐사
계약서
##경비
외관
##유착
##이웃
##데리
##매매
##오버
허세
##지출
DLC
활개
세탁기
##써도
사투리
마늘
챙길
가리키
생겨나
##킨
넘어간
2022
어때
##나기
캐리
아바타
유관
BGM
간절
##파업
1600
지름길
올바르
##사망
사리사욕
누드
##해체
적시타
일어난다
문체
긴밀
클린
##MBC
할래
본관
스팀
사신
##핑계
사이코
##강행
기호
만회
카카오톡
광산
##준거
쳐서
거둘
처맞
드래프트
침착
데려다
##d
한시
##예배
##남성
수만
저질러
##체전
응하
선비
##금속
##사자
총질
##마스터
##연령
가져왔
몰아주
450
대타
천황
imf
수중
가산점
악명
입주민
##안철수
총액
꾸려
편협
##샛
##렛
인디
안위
헐뜯
##사로
##사드
연기력
진다
의인
상위권
##프랑스
직책
나열
작사
cctv
시설물
##탈출
원룸
노르웨이
##포스트
##키를
오스트리아
메이커
약사
잠들
휴지
VIP
까다로운
왕의
##갚
연고
딸리
후폭풍
반증
선심
까다롭
개웃
속초
광기
그깟
어째서
장례식
##내려
카오스
도피
##기념
뺏기
##책임자
아가씨
후문
##구로
##양성
기다려라
아우르
##하락
터뜨렸
##듀
터트리
피땀
##바치
극한
진급
##반성
위함
대여
장시간
유격수
중후
재편
치렀
##카메라
혼돈
연습생
메세지
##래요
세기
파란색
##펴
주파수
결선
챕터
외상
들키
일감
##풍
문다
팬티
르노삼성
##배구
낙관
##로움
##청이
반말
반론
잔당
그름
##기와
##냔
두지
##피의
##기생충
죽여도
도보
가꾸
##렁
##진료
쿠바
걸어가
##습관
발족
##맙
##열심히
##접수
##정보원
##젼
망해라
장남
아이구
##보선
짤리
##대원
탐구
##개판
도울
교단
##구민
##세포
##AI
##껴
만든다
실습
명백히
##눔
어뢰
밀착
염치
항일
##항쟁
들어섰
탄약
산지
항소심
꼬마
크리티컬
의아
모처럼
팔렸
못지
여타
택했
관문
##제조
암만
논점
저력
양주
나올까
똥칠
보스턴
##재벌
##미가
흘렸
or
##치우
하드웨어
##죽음
기질
묵인
##디스크
!!
활기
직행
##조달
##빌리
9000
인쇄
##지침
##윽
뚫린
##챠
원대
사업가
##파트
##150
##부를
탐방
신속히
##비례
특색
공판
꼽혔
포르투갈
왼손
잉여
보호막
변함
임팩트
말레
##취록
꼼짝
##사전
국악
모비스
취했
헌터
송파구
##통과
적시
심상
한기총
네오
##사령관
##다간
번영
##라이들
수조
##이시아
##만화
덤비
##독교
암흑
강압
이산화
이동하
##더라고
정신없
직속
타구
목이
신생
##모독
##달이
해본
##퉤
뭉개
##뱅
##언니
하여금
장려
##예고
반정부
##폭발
털어놨
생명체
##특구
피고인
법제
##우려
제때
연안
오피스
VR
알루미늄
ㅇㅈ
풍자
등골
숙주
줘야지
영화관
1985
무색
##조선일보
##다고요
모호
##홀딩스
분란
리스
##왈
파키스탄
##경력
내려왔
지구의
##인양
출소
##.;;
겹쳐
경각심
피터
질책
피력
은근
##교주
도루
##냅시다
역겨워
퍼졌
공청회
마린
보여야
##확률
통진
풍선
##버스터
카타르
##안의
고고
유선
수성구
##녀석
쳐내
밤새
형편없
사치
##호구
프로필
한인
##문서
엔지니어
칠레
소드
접대
매몰
강타
불려
비닐
정상인
와도
소용
상륙
창업자
##올린
하도급
뒤졌
어떤지
과격
외쳐
##한화
소식통
##엑스포
##극우
##바른
##쇄
브라운
##>,
운영비
택지
응급실
갈아타
금강
유보
##일단
##면은
##축산
테니스
##색이
다친
물려
어둡
차가운
##폐쇄
##작년
호투
텍스트
제네시스
##대만
책임져라
유대
환산
우발
포진
몸값
설탕
##공유
가면라이더
취재진
##아픈
##쿨
아베를
##채우
섞인
닌자
무시무시
집필
국세
대담
수동
밥값
소닉
##넼ㅋㅋ
MOU
캘리포니아
칼럼
##통닭
##화이팅
만든다고
##당께
##할라고
##서울대
강북
##자빠졌
푸드
으휴
단교
##나쁘
떠난다
낙후
발레
벼락
##갤럭시
##깜
여실히
줄줄
애인
##현직
##74
공론
완수
휠체어
할려면
전체주의
##자분
여객
##파가
경쟁사
타지
유이
승승장구
우산
빌라
쓰러져
애용
##실에
##비트
##비로
들어온다
##영리
되돌려
화산
광우
샌프란시스코
실험실
챙겨라
떠오른
##달라
호조
##트럭
미스터
슬쩍
소소
##호감
싸질러
배구
##아다가
민자
플랜
연차
마실
거창
##수령
개막식
도래
##위안부
내려라
##청아
합체
비대위
방구
##화가
##세이브
##예약
##뽀
장래
보호자
주디
##세종
CBS
업고
##논란
앞섰
균열
감행
쓰인
##이야
##와도
##무사
간신배
성욕
미얀마
단죄
존나게
군복
재테크
리치
시카고
김장
지팡이
##너스
회복세
캡틴
##머신
##선일
자재
명도
##a
빈번
##특검
##상금
##존재
작태
##게시판
개명
학비
마리아
##??
##돕
##으리라
특위
홍대
가재
두꺼운
##역과
뭔가요
배추
훔치
##사도
생리
어땠
따질
쫓아내
##따지
헤지
##최저
##정국
##대인
보냅니다
##<
##황교안
##주차장
자숙
스위치
사적
잠수
시녀
살렸
##지향
공교
사육
사스
##국판
사니
아시아나항공
뮤지션
안목
##할망정
안성
스티븐
미끼
메모
줄지
##내부
조그만
##한번
가져올
##이자
##수치
업로드
에구
활발히
텍사스
##시요
거실
##저리
반경
##할께
##표기
남양주
모토
원주민
치마
숨통
열망
대남
탈피
##극의
##교대
##북부
별짓
오징어
퇴치
##케이스
##관념
피트
토너먼트
돌려보내
잔혹
둥지
##온라인
임박
루이스
해역
##예전
에고
시력
한식
##집의
수량
리비아
##벽
소시
##키는
머물러
1100
온전히
딴지
마켓
노벨상
드립니다
닌텐도
##분별
안중근
차이나
마진
깡통
필두
##믹스
성주
번갈
소가
##보조
덜떨어진
아머
##혼의
얼어붙
##조리
인텔
윗선
업자
이권
덩달
플랜트
##반일
##오후
블레이드
버섯
##입찰
매너
가처분
유흥업소
##포항
수산
##일거
레저
##국제공항
이정현
HD
동감
주포
처사
##신도
불씨
##리들
절박
치워
약정
##건수
맞춤법
동요
손녀
뭉가
김여정
##레저
호환
__
##삼진
사비
비주얼
##크림
오렌지
겁박
##단가
##’.
농단
병기
친다
##건너
드럼
아세요
한양대
불길
오크
싸운
아랍
반동
##유발
##욕심
##짜증
양은
귀하
태그
사랑과
구한말
토막
방금
수염
##돼요
지리산
입성
##베트남
해내
진단서
반갑
합법화
본국
##일제
##그릇
빼돌리
에디션
명중률
시드
혼합
집합소
반쪽
##보호법
각별
스페이스
승패
공시지가
손주
##박정희
##문죄
아웅
무얼
휩쓸
본점
이만큼
당은
순방
하물며
면죄부
적법
늦추
##기온
##전철
슈트
산다고
킬러
거긴
곽상도
##테일
당대
환기
1400
마사지
카라
##라스
여수시
알아듣
여성부
역행
##바비
##내일
원서
##!~~
웨딩
대란
안주
직선
고종
사수
이산가족
문신
##도덕
소행
##특
양도
헤어지
삼겹살
##살림
심기
페미니스트
발버둥
노동조합
##육의
상성
광경
뽑아내
셰프
##사찰
기술자
사나이
##라우
##소대
각도
##경선
문단
화풀이
철없
야합
치중
도마
##총생산
의료비
##대교
##해고
정석
##필
오타
인위
실속
부유
##기밀
문턱
귀농
누른
해야죠
아우성
##단어
전반기
심야
##한다면서
비단
##할인
##한국인
##73
버블
자이언츠
유언비어
이루어져
택하
##광의
굉장
스트라이크
각기
햇빛
어려우
내준
잠입
이수
586
유머
##소음
비서실
토양
척하
절제
1984
추대
쓴다고
안하무인
학급
##다닐
##파이
ETF
220
금고
장미
##애기
단국
괴뢰
##초간
박살나
아메리카
커맨드
##부제
홍삼
##바퀴
##랭크
그럭저럭
구치소
##걸렸
난입
##천안
경감
단체장
##절감
##컨설팅
집행부
정적
영변
##선고
##하네
캡쳐
한중
숨졌
모발
무지하
엑스포
책의
##등신
심혈
##가슴
##플랜트
##인조
##장면
피겨
##정산
##협박
급기야
유치원생
남산
##중동
걸려도
##성분
쏟아졌
##어스
침수
나았
##마비
달라붙
징그럽
이화여대
해커
##이론
누락
용의
호의호식
##자는데
장전
##술부
실종자
대갈
파헤치
나기
김구
수정안
클러스터
##동아리
##몹
##왓
서해안
인구수
##외치
입주자
심플
남침
탐색
스톰
##비스
##한나라당
손꼽히
여혐
치닫
상납
190
비공
구독
??
나옵니다
배불리
##시킨다는
경비원
분수
이길수
문과
##비와
내고
불우
만끽
타고난
받들
사사건건
단숨에
떡볶이
##댄
로즈
##힘든
##휴
권익
##차익
입소문
모형
내국인
##퍼시픽
마셨
##진압
한국전력
미쳐도
특목고
##끊
디즈니
바둑이
달빛
물들
##2007
해적
문치
과감히
야심
접할
108
박주영
수출입
우측
변동성
대두
##간섭
전기료
레이드
번복
경인선
병들
남학생
트로피
벼슬
##소년
##또라이
유교
주어진다
일식집
1982
다중
부결
영수증
노조원
최경환
##순이익
맡길
쌍판
후자
파행
봐요
##달리
발뺌
울산시
물리치
노멀
##내면
변환
럭셔리
오찬
여친
##지분
##메일
계약직
##비즈니스
##데기
##낭
뻥튀기
MAX
애새끼
조업
연달
소진
마피아
복도
지켜볼
제지
비춰
##or
중산층
서울역
하이닉스
어마
스톤
들어선다
##옥의
봉투
철폐
오키나와
턱없이
##태극기
재판관
동거
LS
성적표
휴전
노무
##으니라고
##미세먼지
이윤
그지없
후대
폭스바겐
후술
바나나
##어찌
##서부터
아우디
지치
인신공격
목줄
##오가
망나니
묶여
문어
통학
##갤러리
##시킴
##연구회
찍힌
사회주의자
경산
##럭
시연
딸래미
##주로
##연설
##CC
간과
##고와
딸기
이민자
문주
내비쳤
수요일
불문
##항만
발톱
우르르
##택
난동
바리
강탈
MS
##조심
##유닛
##왕따
##지기
기획사
##꼼수
손톱
알코올
발발
화내
아이언
강철
경과
##영향
소년법
패닉
봉준호
IoT
열사
호화
##덜이
신분증
내려온
사옥
다른가
##인민공화국
##76
##뺏
##업소
억대
르노
촉발
별반
순조
리버풀
거래량
찾아보기
##으니까요
부러워
증여세
작살
##페이지
엮이
##회전
판로
줄여서
##82
몰려들
##리얼
줄기
널렸
요직
여느
타다
재혼
무술
불릴
근거리
CV
##마인드
행정관
뽐내
손대
##＂
##원가
맞출
##조약
영남대
연중
범법
조선업
##거려
##국자
어설픈
불거진
##해져서
한국사
촉촉
##㈜
##물론
##대나
출혈
우크라
퀴즈
##간다는
랜드마크
레임덕
##불편
소매
직영
흑백
득표율
구구절절
##실천
##특성
##이온
##인기
박모
펀치
터진다
반기문
넓혀
빼내
산출
평가전
125
##GDP
##황의
인파
for
다가왔
##지회
침뱉
염색
선례
##을껄
괴롭
고위급
##건전
개이
집요
##운행
본진
법조인
사령탑
맛과
반역자
##국은
벙어리
그리워
대인
조연
##오빠
##단원
##츄
##도전
##남부
정장
추이
##여러
##곧
재용
대면
벙커
스타크래프트
주체사상
##누나
면치
됩니까
쪽팔려서
미숙
광저우
##무식
세팅
##구하
##와야
당해서
구한
동국
햄버거
막힌
회사채
투사
비준
파편
유기농
##샀
한들
##상사
탈환
##도지사
동방
배척
사탕
친근
유은혜
수의
##제거
##비상
증원
두목
##로울
##한단
지체
뺑소니
아크
너머
PS
협의회
##출산
마우스
나불거리
##사범
지녔
한껏
##드나
##남대
응모
일회용
박탈감
##볼넷
결렬
행하
##똘
##86
##심하
365
##한데다
자치구
지겨워
##국립
감형
##호남
거쳐야
##파구
##알바
##주주
혼다
그래서인지
혹독
파라
습성
방콕
올라섰
속해
쪽팔린다
##콜라
무당
캐논
워킹
세로
##겠지
##상품권
##따로
##한겨레
정립
퍼즐
일종
방사선
베네
규격
줄인
파병
무리수
담화
메이드
##동지
예비군
인해서
##총경
재미없
##증진
가솔린
##무효
불사
##줄려고
복권
##장인
당권
##분리
전폭
##역대
써야지
퍼줄
##대생
통곡
사돈
##특별시
포화
박찬호
나르
세심
##비나
일진
##니들
여지껏
거센
회귀
출루
분식
벤치마킹
재래
듭니다
내야
##촉진
원점
##국토
##유리
무용
대령
##결
발이
백두
##성동
의석수
베스트셀러
시멘트
뻔했
마르
댕기
멜로디
##88
일쑤
맘껏
##김치
공학
장이
궁지
성원
이기면
한일전
맞먹
국한
명중
토니
묵시
당론
합친
##성명
퍼진
3500
##상장
ㅍㅎㅎ
미워하
상황도
##버려서
##관장
완벽히
국민성
도왔
이성윤
관철
##대요
슬롯
대대로
중거리
끼어들
스포일러
CNN
높인
플래시
애교
##부세
위기감
바라지
오락가락
##네이버
깨끗이
일곱
##핀
SP
##리도
##른
보인다고
##단일
전경련
가진다
회화
종영
다녀라
##토론회
어려운데
고난
정찰
말의
송파
신입생
마루
##캐릭터
신변
동물원
지만원
목욕
반반
##돔
나온다고
##앞잡이
386
광교
아이패드
국공립
##위로
가전제품
일컫
기강
여직
##가을
유니크
앞바다
놀란
대승
뮌헨
이바지
위배
집결
최대치
광복절
선동이
##나이트
##기술원
발열
냉동
유상
광역시
##PD
공용
##라나
경영학
요란
스티커
보유국
반입
##전망
##구가
소품
물러서
##MB
체면
쓰여
취득세
화질
폐해
김천
로얄
매립
개떡
##회피
##78
밀어내
##냄
수익금
만족도
엉망진창
자선
역병
나온다는
스타트
기다려야
##귄
##폐기물
그릴
##드릴
##지속
틀어막
우버
진한
##직접
좌측
적나라
판명
##원래
이별
##N
##신탁
아껴
자괴감
승강장
크리스탈
##궁
샤워
##프리
핸드
따라야
##찬양
##욕의
맥스
공교육
나비
칭호
저해
식민
재일
변기
시다
스타디움
인민군
커지
##흐름
똥오줌
추접
당뇨
항명
호흡기
##지옥
쓰러진
존슨
자랐
폴리
열람
##냐고요
목적지
##써야
선처
머신
##The
##베이
##연료
화성시
커뮤니케이션
고스트
초미세
##로구나
벼랑
안타까워
##패턴
시련
메가
##부끄럽
OUT
##내요
서기
PK
정자
구독자
사명감
샤오미
나물
이긴다
##・
대대손손
껍질
역활
베이비
나랏일
##증후군
김종민
똥구멍
돈의
투척
심층
급히
사정거리
완결
머무르
불법행위
군부대
무너질
##야겠다
공과
트레이닝
잡음
무자비
회사원
묘하
속고
일어
저래도
##실세
선거전
##겹
##직장
가르침
##랬
배워서
##임기
닛산
까발려
##씻
##감수
머지
성도
##타당
시상
주당
몇일
엿같
초라
##생물
##야죠
선의
##용사
포즈
직종
##거릴
##이상의
명함
고마움
태아
서적
기한
깨졌
##자전거
##은퇴
상봉
대역
##대학생
가출
##뮤직
양육
차마
##진다는
미혼
##한답시고
아레나
##98
노동부
역학
벌금형
##승점
법치주의
##는데다
이토록
수십만
사나
저렇게
시어머니
실수요자
주상
운반
##주문
해리
펼쳐진
나부랭이
모터
##연도
까대
순공
번식
곡이
급변
정관
애꿎
오른손
안전사고
##수준의
헷갈리
실려
직인
막힌다
공대
##공세
담장
##옛
고충
외우
추리
동족
어미
나대지
자빠져
재산세
##KBS
곳간
##법무부
조주
울음
##창원
소아
보탬
세븐
이불
발리
생필품
개차반
##장학금
양해
##중국인
비박
냉전
어울린다
##마누라
떠안
전과자
난방
배트맨
시뮬레이션
유병언
야수
TF
화석
으이그
##한태
물자
몸무게
솔선수범
##도발
저능
##사이버
##'…
교육자
한수
가져갔
##동과
능지처참
무증상
##친화
##닿
XX
제소
무효화
농심
스텔스
그레이
행장
##석이
상표
전량
자각
양손
부응
안감
스파
##지리
차선
RPG
음흉
이분법
##골드
흐지부지
여겼
잔재
향했
마니아
물결
내륙
##물품
엣지
시원찮
물러
야채
개콘
꼬우
평화통일
남북한
##음료
앞세운
##주체
합쳐서
베풀
노동력
##화대
독거
##ㅏ
재주
먼가
내린다
바글바글
사용량
입장료
수비력
세리
회차
##투스
CF
확연히
##헐
##장도
##염의
전도
팔자
##연소
어민
보행자
##아야죠
강서구
미필
1983
어김없이
##아무개
인심
아파
초심
부도덕
##도당
코끼리
##기분
알려준다
알아주
재회
듀오
##감도
##늙
아니면
##스케이팅
별것
##국과
시합
##치매
##피스
경협
만이
보름
몸소
받아들였
1979
포천
##된지
##사형
##오로
##꾹
나흘
##심각
잡스
전시관
##의도
##이동
##셔도
동대문
행안
풍요
커진다
에릭
게시물
일절
##구야
이용수
성의
##체인
구린내
검사장
김성근
리뉴
펜스
모함
형벌
등쳐먹
우선시
누렸
##백의
거쳤
맨체스터
##호로
##정체
##증서
힐러리
그늘
큐브
발산
##품목
별장
가령
배현진
일어서
시트
껍데기
##잊
집안일
수천억
어떨
부담감
부평
청도
앨리스
대졸
방산
언더
병실
##했잖아
경인
##할텐데
##비밀
단거리
불거지
수긍
던질
살인범
##구멍
보행
할당
유진
##꿀
##나르
지주
난사
포상
##리스크
훔친
삼성증권
수박
진행자
구더기
배임
성기
하이라이트
만능
현대모비스
##위협
유니
##었잖
역습
토벌
##부턴
실린
무안
국제법
##계시
잔액
##문대
혓바닥
물러났
연면적
##에휴
사기업
##스테이트
출품
고공
중첩
##석탄
##겻
마포구
씌워
따라다니
속하
##피아
도의
##오영
저서
가결
불법체류
잔디
망각
스텝
하찮
모은다
##구청
검찰청
시간대
##으려나
##어판
광양
팔려
##투자가
조속
가든
서거
##컬
떠돌
##뎀
세치
분주
##투사
장학
퇴보
##피싱
미모
##옹
출하
부역
##넘어가
유익
##뒀
토마토
지오
##한단다
퇴원
림종
라며
##드려요
##초반
##마지막
##그걸
쇼크
욱일기
험한
질병관리본부
##호도
카피
돌린
효능
IP
못생긴
##학살
커져
환급
##전복
퍼스트
왤케
##신뢰
##마산
##가공
화사
원소
따온
필사
취항
##붕괴
배짱
230
##원단
선글라스
##댄스
엑스트라
길러
##용기
배차
카르텔
##쌔
##국정원
##한가요
광물
CPU
폐암
##탁
가히
적기
##쇼핑몰
##방과
##미치
격렬
국방비
##일치
치른다
입도
괴리
##타격
테니
이재정
##어머니
우뚝
모질
내려서
##졌으면
##현황
크리
브로커
평판
계통
##스와
등기
급성장
연타
연주자
##보통
지지부진
##죽인
살려야
빈도
##전술
밀렸
반공
끊기
폭언
##첨단
분간
군민
청문
아주머니
2021
##최악
엿볼
OK
모릅니다
##고통
증발
교육비
모던
두드리
##기독교
대전시
체코
##은행장
당첨자
##죽여
월평균
막무가내
서슴
예컨대
##샘
기고
급속
##리바운드
나눠서
정신력
##확산
##옵션
고질
##맞추
맛볼
맡겼
학벌
동양인
##창고
##작단
##캔
빼앗기
동남아시아
##불량
민첩
패기
발각
징징거리
마주치
수모
화답
직격탄
조망
용접
일축
현대캐피탈
끝없이
말레이시아
경상북도
납입
##관제
끝냈
로드맵
고갈
연맹
반장
설날
미제
서두르
돌아간
마인
성명서
##꽈
백두산
루이
시흥
##마는
##79
장로
충견
악한
지나간
지주회사
선체
알라
적금
유가증권
##체가
즉석
달해
##조기
뭉쳐서
##꼰대
국무부
##사업비
망가
안타까움
##아카데미
국밥
위쪽
로펌
##자구요
토르
##답답
##♥
동창
##특별법
##출마
##형사
##인다
예보
웰빙
투성이
결사
수호자
##숫자
##앙도
##리온
수퍼
세인트
인도적
어우러진
생소
조처
경보
##상가
처했
##왕조
##쪼
스케일
개연
##옹호
안보리
부가
타운
##복구
평준
##성장률
##공평
수뇌부
기장
연구자
무더위
대문
착륙
##핏
부의장
테러리스트
반역
티어
냉철
##힘내
좌천
현대제철
LPGA
선제골
변이
연세
항로
사기극
접종
##교인
진해
두려운
치러진
제작비
산행
##할까봐
##보존
102
##소리야
포탄
김밥
##고가
##설이
##"(
##저널
##대란
문항
저택
떨리
단종
##블랙
유럽연합
보습
마포
대모
딜링
##국방
치워라
처해
구직
트레이너
코멘트
스턴
##자며
무성
한결같이
낱낱이
과반수
차후
##케이드
##설명
장례식장
플랫폼
이뤄져
##vs
육갑
믹스
여행지
그랑프리
다스
선대
교대
편곡
전전
그라
보여서
디질
회색
넘어오
과속
달걀
##근거
##항목
미용
00
##까요
##겐
테마파크
외주
##테크노
계약금
레이싱
지휘자
뉘앙스
어택
미러
수학여행
악성
해양수산부
음악회
에미
##난다고
파고들
##압
들려주
의병
##오일
수신
당정
매춘
매칭
어려서
웨이브
들여다
출입국
##혼란
키워야
##지와
뽑혔
##바꿔
http
피켓
카트
##들여
##장갑
##주지
##유시민
##㎡,
##에이
중재자
모지
꾸리
##재끼
##환
하려
연탄
##특혜
##자수
평창동
##데모
노통
꾀하
구직자
무너
역점
몰상식
지쳐
은하
최강욱
지방분
당뇨병
위촉
어설프
후의
##KB
##드루
포르노
볼륨
갈아엎
코엑스
잠복기
배역
똥고집
모스크바
수다
##사거리
지방세
정형
횃불
지켜본
막막
순찰
발작
신생아
옳다
견학
간호
의의
##됀
명언
필기
때릴
다이빙
시그
##왕국
그따위
맞대
##언어
영탁
바램
우편
강변
비법
##동속
외양간
상반
두드러기
인가요
작화
물체
##정규
##ℓ
##아내
##멤버
딴소리
겸비
절정
##공산주의
필자
십자가
공사비
##졸업
조커
##거니
정제
입자
놀랄
##요법
제물
빵빵
##사면
사의
##자네
##조항
##올라
유로존
계명
대머리
내로
대의원
비례대표제
뽑힌
유대인
능동
남녀노소
##컴퍼니
##염병
단군
언주
##＝
어울려
인플레이션
##전두환
##확
성수기
##농성
전쟁터
외환은행
윤석민
##스터
아르
아리
##체력
협동조합
급속도
##청소
##어당
이길
3040
##망할
내실
##소가
##서기
##깍
뒤쪽
갖춰야
베이
늘려야
공허
다는
##기장
공습
위엄
투신
도정
카테고리
신안
원시
##전라도
빡빡
스탠드
DMZ
##대부분
##장난
##포털
##🐕
##접
뜯어먹
##현안
##평소
##맥
사과문
##주거
꽁꽁
##친환경
##그거
할머님
구워
##동부
교리
이제껏
구비
스카
노고
##금지법
아부지
LPG
##후반
구르
레시피
남동생
빠진다
빼돌린
##웍스
1700
##스틸
감염병
정치색
포획
호불호
신용카드
##헬기
먹칠
구동
##갸
트러블
프로세스
##크로
##전과
채웠
버금가
##깐
함성
영재
떨린다
대응책
안일
온상
쿵쾅
넘친다
원만
죽여라
270
거둬
마른
입각
관리비
##유입
구석구석
##리본
##애국
##고로
끌어안
사다리
자력
궁합
택한
정확도
전기세
115
##육상
속마음
독주
##벌이
##㎞)
벌려
##젤
##런지
포도
강호
간소
중원
김태균
꼬이
유언
이공
뻔한데
미친다
##썸
필연
담겼
중남미
##탱크
대출금
원한다면
품은
##압박
토목
사이클
충원
실기
도산
##복귀
불러야
##마루
이양
결의안
##고향
큰소리치
시군
##이스
##가가
센트럴
마블
##태평양
제국주의
도리어
##협동조합
건재
##통신사
##우드
##수정
##검색
경영자
##빽
##비싸
바에
분탕질
##간접
##배당
허벅지
##go
선봉
중력
청나라
##차지
##보드
찰스
##증세
##상업
충동
운임
공신
##화장품
상설
돌려서
준결승
골퍼
울부짖
초고
##수리
액체
김부겸
밀린
##잖은
##테스트
##철회
뉴타운
타점
##세습
##서장
기관지
화법
##수장
##오래
레오
목요일
애시당초
##사관
포위
세계인
##미팅
불상
설훈
발원지
수용소
##활
분실
버려진
도자기
잭슨
아모레
심도
##어차피
구타
부조리
퍼다
이용이
외전
유명세
##키즈
##위주
백색
##잠
##인형
##글자
1981
캐시
능력자
기동성
궁민
정산
##미리
SW
순회
타이거즈
송중기
급속히
##담의
신빙
윈도우
##폐의
줄여라
자아냈
차근차근
외무
멘붕
##허브
따를
더러워서
요번
추태
##차라리
##십쇼
찍히
패소
##바기
학자금
모방
##레스
즈음
집합
배부르
##어서다
IOC
탄창
꼬시
두부
##숍
쓰일
강정
죽인다
##을려면
##컴퓨터
몸싸움
판례
물음
괴수
아세안
아무데
떨어진다는
뱀파이어
국제기구
스트리트
##수능
서운
정모
로맨틱
청취
토하
##체하
소변
이견
세율
동반자
해수욕장
재조명
폭우
##상선
비틀
한번
대등
유우
다듬
##려는데
##비중
해답
주신
휴게소
##☆
##.^^
닉네임
채울
그친
기다린다
밝혀질
잊혀
무지막지
##녹색
문경
전학
공언
쳐들
변론
받쳐
구하라
##경협
중개
해병
OS
로그인
이펙트
깨져도
출연진
프리큐어
즐비
유권
##팍
##표가
허공
##전대
혼수
##도구
쉬워
동호회
##http
김기춘
놓쳤
주진우
마틴
맡긴
##엄
찾아다니
밤낮
##리더
래퍼
기류
뱃속
##특이
비축
이겨야
BBC
애당초
##서도
연합군
##베야
##강도
##테타
수돗물
테이프
가디언
초당
교란
최장
앞세우
될까요
##유도
왕위
##관료
상응
하기야
##한도
방화
자생
##흘려
엄밀히
짜릿
##뵈
강진
기울
##변
미성년
##빤
수첩
똥통
##줄이
울릉도
##죽일
목구멍
공휴일
통폐합
군포
##딴
##KT
채운
모리
신전
건너가
미인
변한다
기인
##시네
주니
목걸이
실익
##고속도로
허다
##사모
얍삽
##ㅇㅇ
애잔
조선소
##단독
자유주의
EX
잠식
설레
극소수
##네트
주휴
##배송
개업
명인
이동국
언능
하신
##논의
##스나
어쨌
거취
##경관
##부양
월급쟁이
다큐
##보일
북방
거랑
시댁
##배달
##최초
문법
성취
재수사
##들어갔
박아
민관
##완
배신감
##개동
##던가요
##정이
##발사
##맞춤
두세
불어
미팅
##깊
짤라
##병기
와야
월남
고른
모을
##습의
트레
##훼손
##민생
##인승
##비행
알린
##전적
415
##세가
정례
끊임없
체크카드
##음모
선발투수
가오
외롭
##자재
##추종
비주류
발명
탐지
주변인
연구실
##동향
##더럽
효자
진중
엇갈리
멧돼지
녹조
##건대
일품
##화장실
우방국
750
흘린
##원수
볼턴
##빠르
느껴졌
독립투사
봉급
레인
##소개서
주접
시한
##코인
목재
##댜
삼국
절묘
안양시
##그럴
농지
##척의
##체육회
거슬러
여포
극성
남경필
서비스업
##관광공사
개고기
##앴
집무실
쓰러뜨리
드러날
##연이
몸담
##i
어긴
우주선
오물
믿기
터보
생사
##미안
##독감
부속
낭만
##81
##지자체
현충일
소홀히
대동
직급
힘써
돌파구
면도
햇볕
가맹
아이큐
괜한
##캐슬
##루트
필리
공갈
여의
메우
##깡패
부딪히
정동영
오승환
독단
난국
라임
화난다
끝내기
##나노
징벌
##호에
##미니
보따리
해수부
정녕
구만
솜방망이
웃돌
맹세
##눈물
103
##나리
##치는
부검
##홍콩
특례
단체전
자취
km
##MOU
이룬다
##연계
합창
청년층
친숙
진위
완주
열세
##c
650
##요건
연연
괴롭힘
인내
어벙
가이
루나
잡혀가
행방
알아내
욕보이
오더
신청자
합심
다급
기병
회유
늘린
PB
##막말
##그건
본지
소치
챔프
언젠데
빨래
##해줘도
피디
##버튼
막가
##부여
암컷
주무
경수
낮췄
##평론가
항공모함
가자
추상
##제출
##문명
##편들
이어폰
##채무
##재판관
육지
##서리
충주
##해본다
추앙
조양호
##어려운
창의력
전라남도
밀가루
은근슬쩍
주광덕
고쳐야
##전북
아이유
접점
눈알
몹시
##증상
역의
송혜교
##Q
판결문
다쳤
##태도
골문
수도권
개호
##랙
##은커녕
마자
조센
대표단
##한들
미르
진천
==
김현수
짜장
##대접
김상조
어딘지
기울여
##․
징역형
알렉스
##놀음
사극
페이즈
##선진국
팔꿈치
##인단
신청서
쌓았
##뿔
ELS
장마
사무관
중앙은행
원상
##96
누워서
##식물
세션
박병호
##먹히
방대
수혜자
농축
##〉
경합
##토크
##선과
한탄
엄연
##기후
자가용
WTO
간경
기웃거리
##인성
현행법
##율의
내셔널
항문
한양
##펙
##실망
솜씨
##국을
여행자
소박
쭈욱
흉악범
연산
명실상부
하사
##원에
앞장
할부
피지
날아오
##도어
요기
그랬던
망령
##회의실
##분배
##으실
현저히
##83
찬다
휴업
형법
오디오
그쳐
동무
후세
##마치
##신지
쏘나타
##착한
##리터
병상
##레이스
제트
##호주
독립성
개기
##설립
원자로
##외부
##선정
파헤쳐
무급
김해시
한파
쪽팔려
##괴
결재
선다
격하
##%.
##양식
암것도
추해
끓여
##마나
##블루
역전승
달러화
##매우
인줄
##장에
아비
공석
##장전
오메가
골목길
남친
주일
지발
영등포
수괴
손질
##공대
초토화
무신
##~"
패전
요리사
##용어
재질
실무자
추진력
모음
메르세데스
사우디아라비아
과외
##!~
##싹
해냈
닥쳐
##루가
프라임
문은
##예금
국방력
호르몬
사야
잔여
증명서
##겠죠
##마라톤
티저
##서버
##올라가
샘플
진성
요트
미쳐서
역차별
##아시안
->
##엔딩
독창
##느라고
##텀
세이버
왕성
##매각
##외고
##총의
체벌
밥줄
문화재청
퓨전
##리나
##쑤
이마
거북
대미
반대파
조직력
##가전
##남녀
##n
사병
차렸
##로워
1900
뽑히
의료인
온다고
의사소통
입장권
##멍청
사상자
분비
호로
방망이
토익
##의약품
옮길
입김
난장판
애널리스트
더럽히
바꿔치기
##증자
노이즈
##단기
##문화유산
##냐구요
토트넘
##인먼
심어
콤비
안산시
미치광이
간장
블랙박스
신랑
##지른
##열의
마땅히
##망한
항해
짬뽕
균형발전
##으란
##전처
구매자
관례
꾸며
##~~.
월간
##촌의
##팡
##주차
테란
접시
치러야
##훈장
냉면
##이냐
##팜
##이마트
흡혈귀
##러스
##줄래
현주소
운전기사
각계
조또
CC
관계없
##운동가
로컬
부상자
##선박
군중
여주인공
통한다
##녹
독성
바닷물
포탈
리우
##젓
봐줄
관전
법규
누비
갯벌
만천하
두고두고
##l
##차린
진통
진에어
소라
세밀
얼만데
잠자
헨리
##탐
치료법
##변동
품절
##차트
##이민
자릿수
내놔라
##교포
##대주주
건국대
클랜
비고
##코스프레
##강자
묘한
녹취
파츠
즉사
부쩍
총사퇴
꽃길
##뜰
준거
##윙
컨벤션
제제
##보훈
##기어
어떻하
둬야
##중지
싸워서
푼돈
취임식
스트라이커
어우
생가
일류
##분위
구장
재외
투여
구축함
##으로선
음향
월등히
##지청
##잡지
##쇠
##어벙이
흉악
위급
견딜
정가
##오프
그럴까
헬멧
ㅇㅈㄹ
길바닥
윌리엄
##는다며
품종
오라
인허가
배움
부흥
흘렀
식이
지하수
팬클럽
일생
결별
저쩌
##아리
하프
유방암
엄두
##한자
적잖
##대안
노령
면밀히
중장
##인한
뇌종양
##인류
연장선
김호중
##기타
풀린
원도
##여사
본심
조우
##소개
패딩
계략
뚫리
##내기
관해서
##뎌
인자
텅텅
바닷가
반항
밝혀진다
함양
장편
##250
커넥션
##로라
##한테서
놓친
##경로
견고
지탱
지구촌
거미
석면
친해
DVD
내심
방류
1945
매기
##펫
고증
베타
1978
회개
책무
##다라
감격
구애
완패
문양
관공서
소동
텔레
##괴물
##소유
들끓
보루
##횟수
사범
기꺼이
원년
생산자
시크
##89
분리수거
##망했
농약
나돌
수료
사문서
##들으면
##전시회
쐐기
얼빠진
##일과
김영란
고정간첩
빈약
##"…
일리
##이노베이션
##벌리
따라오
##체자
##구인
##분노
독과점
카운트
삽니다
##독도
##가방
##인용
##92
거역
out
기다릴
산악
##명품
##례
##투입
##114
##낄
##』
알려야
정숙
마구잡이
활보
보유자
핀테크
자긍심
280
득세
시책
##강력
혈통
간간히
블룸버그
##통해
복싱
입상
결산
##통사
##청과
##정확
강정호
##가라
한지
돈줄
개도국
평면
##가루
움직였
외침
##매입
명명
전세가
연행
정은아
지부
##진심
하하하
##도우
개로
빌어먹
굴뚝
##문아
##펀
##부담금
##사위
재심
수식어
##즐
생물학
몰려오
볼일
하노이
첩보
##남이
아쿠아
##싸우
##동아
완승
편승
##솔직히
재검토
천연가스
##장단
팬츠
모의
리틀
##탈리
구슬
랜드
다녀야
영예
계십니다
발돋움
정숙이
후면
##향상
어우러져
헌정
유시
사무소
##공구
##똑바로
딱지
시발점
USB
필승
되돌리
##토토
본다는
신조
양당
##구들
나약
##챙겨
변모
오거돈
##하이
##켄
상회
탄환
##쌓
벽돌
한선교
포스코건설
텔레비전
더운
순리
##마땅
구로
참내
재대로
푸하하
##이터
##호수
사냐
미쓰
##클릭
엔젤
구미시
멘토링
실직
pc
##괴뢰
##딱이
흔들림
열혈
감내
양현석
아파서
##쟎아
특권층
내통
카레
여객선
##망한다
##발찌
의왕
##지훈련
맞선
고층
알선
https
##호환
박태환
##한다더니
##2020
여고생
얽힌
##데요
##닮
미스터리
##랜다
##턱
##록의
투표율
빨강
260
##남기
##선아
붙여서
지울
서강대
처녀
찬물
우량
나아갈
##춘
무전
들으며
##마왕
백지
쇼트트랙
##유사
지라
왕실
송환
##행태
급부상
##고대
##구입
##유린
애완
헤비
속담
수출액
이주
##평준
##하인
조직원
초토
숙원
단언
아쉬웠
달서
부풀리
빠뜨리
뼛속
##초교
##진정
대패
제격
최태원
##바르
##ICT
##87
##라디오
스카우트
AS
##기념관
개천
꽃뱀
거른다
해저
애국가
내비게이션
##종족
사업주
훈계
##옥순
절도
##계급
애완견
헤매
128
##미약
##갑시다
망해서
압권
제약사
가족사
회의실
##그로
##공기업
보잉
넘어간다
요지
환생
##사정관
시립
거주자
##닼
##소방서
추기경
개구
##바라기
비선
망가뜨리
구혜선
##순이
##밋
##콩
허덕이
##스마트폰
##드가
생김새
##어렵
준하
강당
그려진
어벙이
##어제
넷플릭스
뜯어내
청라
빌린
우겨
##91
서포트
##부상
초빙
학생회
##__
가습기
케빈
##로우
쓸어버리
##악화
메리트
정우성
단두대
##아기
종가
##포고
##빨아먹
격상
신병
모의고사
총파업
묵살
##편한
잇단
##튜
##플로
블랙홀
아서
태어날
##당선
##워크
한정판
##릉
치사율
신물
멜론
##―
앞길
호가
##기강
아메리칸
산업용
##데스
내놔
##였으니
##날리
기본기
통행료
김광현
당진
삼류
한명숙
체온
##한방
퍼트린
찢어지
치지
일기장
체내
당직자
결여
가져와
본문
말지
노브라
##빕
몰이
벽화
훤히
##120
##치도
유키
##국군
팬텀
스토어
CGV
LIG
##2006
트레일러
피했
나사
##독재자
##랜
##식민지
삼촌
아반떼
자연환경
##족속
##국인
피아니스트
##밟
내세울
##메뉴
펜션
전문점
사대주의
초석
문화유산
##실까
##차려야
얻어먹
언젠간
팔린
데드
우여곡절
##설정
이관
감세
주저앉
미수
##파리
성급
진흥
##다스
##ㆍㆍ
전용기
변종
##℃
근력
다가
##메르스
##보냈
눌렀
##충격
패망
##만장
아름다움을
배트
헌데
메이플
배부른
##아닙니다
점주
평론가
상경
두피
외친
반군
##킬로
##버릇
##빠른
##충전
##핵심
수락
##이드
135
##그렇게
정조
산책로
느껴질
설이
무주택자
전문직
##맥스
##스목
##남매
기냥
##진화
심경
시킨다
장구
##가파
코디
콘솔
이청용
체형
##덮
삽살개
##붕
씨부려
현대건설
곡물
##!"
쏠쏠
##공시
기준치
호출
돌연변이
무기한
귀중
##부나
##진상
##법률
없앨
돌봐
핍박
총체적
동인
망쳤
##출자
##여야지
##거점
군기
싸돌
##연습
편도
##보관
석고대죄
돼요
갈기
경부고속도로
##연결
경전철
##나중
내뿜
전해진다
레깅스
##썅
열라
##약품
##천재
입니까
장터
경차
옮김
변함없
가설
쳐묵
쫒아
다스려야
##IMF
밴쿠버
##한대
##광역
##라든가
존스
월스트리트
산적
경로당
##삭제
##}
##위하
기념관
부스터
패악
##묘지
비우
빈다
##보좌관
복종
스코틀랜드
##대수
리타
난독증
다니엘
유재수
증축
##전문점
굳건
방어율
##코트
가평
##방자
엊그제
예우
사익
다국적
쓴다는
##줍니다
##객
##강변
수컷
자자
위스키
##컨벤션
따돌리
104
##k
##성인
니트
첨부
UAE
당파
##추방
111
포트
경청
저버리
##인분
농수산물
손색
화물차
어처구니없
핵미사일
상류
세워진
벗겨
미주
일본식
할수록
##기네
블러드
거장
언론통제
무서웠
수제
예고편
느려
강단
##수구
##97
원문
식탁
양말
##까라
항암
스미스
요미우리
여태껏
##스리
동사무소
숨길
구질구질
일간지
넘버
아슬아슬
테라
폄훼
와이
햇살
##구현
##●
몹쓸
강판
팔레스타인
표류
파국
촉각
##총괄
이회창
알맞
1965
이지만
수탈
천명
##편지
##아지
주워
##교시
짱꼴라
캡슐
##반드시
##법대
어시스트
넘사벽
본작
##올랐
수평
##교섭
고령자
다뤄
##농민
화요일
자연재해
임시회
##레딧
쌀값
##전방
##세탁
자궁
##돼도
##예수
다문화가정
##학점
당위
갖가지
210
실거
서산
##실태
살림살이
구차
##대리
울타리
사용료
원재료
##삼성전자
기관장
노렸
극일
##꺄
식상
의거
연승
변할
화신
##유죄
연소
삼각
##불황
##괜찮
##애액
시청료
요격
조합장
지기
US
성토
##탄생
내쫓
##침략
유성
여드름
알레르기
출연료
##엘라
덧붙여
123
##비도
저마다
모친
##무용
손씨
##삿
미화
암세포
반가운
PGA
아홉
속히
IBK
전지
##시아
클라
방증
들인
##경고
다각
##부스
국내산
##못할
##워라
고칠
금세
보라색
빙자
수자원
다졌
철퇴
내몰
꼬락서니
반출
##중공
##터져
##애미
곰팡이
풀렸
##XX
##까끼
##방가
SF
기독
어의
애칭
느슨
위례
##걸려서
불복
고귀
##선도
꼬붕
루저
일용직
문천
멀쩡히
##가명
660
결탁
역부족
여대
반열
맞짱
두각
참견
분담금
어때서
먹을거리
최우
##학의
국립대
장갑차
커밍아웃
##으십니다
몸살
리즈
국유
오마
자라나
끼친
받치
스테이
플라
##가까이
도우
사무국
##로로
##벤츠
범용
지탄
고루
##약속
워커
뱃지
##가시
##민정
군데
나불나불
##뮤지컬
신세계백화점
강간범
협동
빨치산
우즈베키스탄
급상승
즐겼
상부
##더구만
모아야
거주지
러닝
##감옥
하급
##중도
벗어났
가르쳤
분의
박인비
습지
갑작스럽
##배출
임차인
암살자
아까워
살펴
은신
베일
돈독
긴축
피폭
##리야
전동차
1973
토사구팽
잘생긴
엎드려
불발
미비
주중
라이온즈
건넸
진격
내구
##tv
##접종
펼쳐졌
당직
##수위
법리
기성용
##넥
끝낸
##딕
달달
단추
다가올
결전
뛰어든
회견
편중
##졌으며
인사말
나올지
##클래식
흑우
리얼돌
무이자
##접촉
판검사
수반
다가온
##학급
##근처
무공
넷마블
##지켜
바랬
실존
##날까
장만
##가즈
##삭스
##플란트
부시장
##의자
##파운드
위증
노노
##전도
##셰
슈퍼맨
##이사장
##핑장
선후배
최성
단번에
판도
##함대
분도
서른
영생
피해야
보일러
롯데월드
특단
114
마리가
##듀스
데몬
330
토마스
수영복
사활
땅콩
##기각
점진
##트인
##원리
##서울시
알림
You
견본
크로
인조
로스
경의
벌어진다
안상수
##검의
부통령
##외국어
##고법
빼앗긴
논할
치자
##원조
쥐뿔
##용량
아름다움
서번트
빙의
##더리
신하
경량
이래라
##감성
www
##즉
방호복
흉터
갈취
##스퀘어
출고
##실로
좌완
의향
용품
##집중
문디
##신화
인피니티
후보지
빠짐없이
디저트
도려내
인출
○○
청각
01
불태우
만전
'(
나아졌
여편네
##페
##유형
영천
##쇄신
라이언
##인턴
1975
##발행
##부려라
##틸
때론
히든
일족
조아
##메이
엑스맨
줍니다
방수
##예상
부적
똥파리
난관
망정
오케이
##삭
총무
포르쉐
잔소리
예결
우찌
조구
아팠
트루
##성당
주유
올레
능숙
타일
정청래
사교육비
제각각
ㆍㆍ
낯설
##삐
##들어간
##장벽
돌변
한다는데
##대판
##전세
방어구
##운송
오를
새꺄
서너
공생
##용인
##군단
붙들
떠오른다
어워드
세이
교도
MBA
퇴행
##기아
##합동
##텐데요
##플리
##입대
##계산
현대그룹
질러
프린트
드롭
루프
##될까요
막혔
##지르
총칼
징크스
다이소
미디
쯧쯧쯧
울려
수치심
##저렇
인과응보
중량
젊음
##페어
귀띔
감고
따랐
바이올린
바친
시니어
##놨는데
산부인과
딸내미
층간
언데드
KAIST
독식
욕한
##했어요
울주군
##할려는
##패널
돌발
군함
장애인
몰랐다
올드
잠자리
해태
타이거
라이플
만져
파울
##민원
##세연
선뜻
새우
피닉스
##리어
##마니
감소세
반짝
아찔
it
보트
공자
오리온
거만
줏대
리포트
그래봐야
##증시
산물
##부실
방사성
가산
아날로그
모태
새겨진
할복
##미만
##OECD
참으
진원지
스토커
##지능
밀려나
대덕
##어린이집
생수
작물
##전교조
자만
##한데도
##라던가
##주소
드나들
굽히
4500
날릴
쫓겨나
재협상
돌연
##내수
하이퍼
암기
106
방귀
##리서치
손잡이
##해피
싸워라
##기법
##겁
쑥대밭
생활고
글쓴이
개당
##둬야
##"..
##걸까요
##국어
종속
윤곽
휴가철
##할껄
발현
불분명
##명은
1974
에세이
문책
미녀
면회
##93
엘리
알기
##만하다
애도
대열
선회
재연
강기정
##잖니
빼액
구태
##낙
마음가짐
##병력
미용실
##대책위
영종
물러난
##웨어
하아
##벅
게이머
체납
페어
교토
달리기
바늘
##만도
구시대
싹싹
소란
꼬박
기력
양해각서
졸업식
일탈
원단
##이혼
달라서
어수선
##소스
##상실
아이고
공은
##직이
##부진
##의심
발가락
##가칭
고아
##헬스
절실히
##경보
조형물
##대주
중추
발포
이력서
##말자
하버드
##서부
갈색
##뭔데
번거
플라이
피난
주기도
부가세
그린벨트
꿰뚫
노릴
브렉
짝짝
##우익
그래프
모닝
함박
무용지물
요령
두르
##운전자
lg
체격
적패
##선다
웨스트
##부위
##확장
자산관리
##국민은행
집유
이롭
##니가
부산항
따른다
##명이
##잡아먹
죄수
싸운다
##얼리
##뿐이
신봉
자산운용
뷔페
소탕
107
조가
##할게요
디지몬
혼동
절규
##전파자
##둬
가할
참고인
기간제
거머쥐
##탯
후련
생겨났
청사진
도망갈
울분
NBA
##짤
착안
힘겹
주거지
법무법인
판박이
리처드
인멸
##횡단
달릴
탐험
먹방
우승컵
통칭
##개학
헌납
중징계
뜬금없
109
달성군
##뇌물
##속보
첨가
독이
##오름
유지비
정예
부사관
II
하자
##목록
뒷면
쥐어짜
우왕좌왕
입힌
##파견
까발리
##버들
개비
행렬
통할
##쌈
이라니
##주공
##세이
새만금
##구축
대위
세분
##해준다
##발정
신사업
낮출
##밥그릇
풀려
코팅
하이에나
##신데
움직여
묵직
민초
아담
보인다는
##모리
태안
분발
상여금
허점
##무가
회자
개점
##신호
에버랜드
##저항
##이치
##발급
경상남도
기묘
##임원
양키스
실로
챙겨야
##상국
근래
로스앤젤레스
##힙
##매니저
##정밀
간파
콜라
막연
비상사태
거들
인수위
모자란
때려라
식단
호박
다가온다
##강원
하진
##했을까
미약
젠더
폼페이
들러리
시초
뚱뚱
때우
##오히려
필히
##가입자
##강좌
조건부
##또는
몰려와서
##스톤
축구장
##사이즈
##고령
분사
##전차
##사나
양분
블리자드
밝힌다
##약자
희열
##요양
잘잘못
##균형발전
도트
##지자
도로공사
격돌
노려
권력욕
난항
##투데이
마일리지
수십조
업보
싸대
캐스터
관용
##산전
범하
교만
폭격기
SOC
항모
눈뜨
도망간
굵직
인거
오오
아들딸
##이걸
##쏴
##두산
얽혀
장부
퍼레이드
끌어올렸
영공
익스
GP
돌이킬
##저거
##수명
##수용
액정
칭하
##인터뷰
##소원
갇힌
바론
나리
##정세
허탈
아집
##법과
##바지
##약식
산타
##제시
효도
##작과
김명수
궤멸
물증
세액
##비정규직
위장전입
##항상
본업
펌프
BJ
전면전
영도
했는데도
루비
줄기세포
중앙당
아리랑
부치
##경제자유구역
아쉬울
##흐
힐러
고국
##연휴
##단총
##쯧쯧
문세
##피부
이랑
폐허
##대해서
천안시
달랑
안착
상쇄
숙련
성대
성전환
주식회사
얘길
출발점
피드백
##Ⅱ
##숙이
동학
##겜
##질수록
프레
##베리
한옥
sbs
##착오
##스로
##총수
무명
일관된
맘대로
먼데
서장
##IoT
딴따라
선로
##볼려고
데려
320
맞불
쌩까
광대
실리콘
갈까
주택가
##컴
강력범
넘어설
얄팍
순직
쫓기
깨져
트롯
자본금
##탐구
##시한
되돌
##뷰티
길들이
사춘기
은밀
열지
숙성
청화
스핀
개탄
##할매
진보신
대내외
##엑스
뒤엎
서머
공해
대리인
차려야
##해냈
동떨어진
##장교
##이렇게
##온도
그럴수록
크레인
##농산물
동북
스트리밍
꼭대기
발라드
대성
##과잉
건보
쏟아부
겨누
##공모
경지
어느덧
##신이
##신한
##카카오
원성
자나
##엄청
죄목
##강당
##딴소리
##라니깐
뜬구름
##뻑
기념일
두말
##보증금
##화성
물대포
카자흐스탄
부의
##쳐넣
##황제
외야수
##SDI
##인수
악덕
##소름
밑밥
김태호
딜레이
##일수
블록체인
##특보
디시
여대생
##해방
몸집
##리안
1976
##종료
##지나가
쳐야
맥도날드
신호탄
##파인
##아프리카
상도
뒷감당
드러낸다
정이
미키
발랄
##출장
분과
##담당자
##힐링
혼선
터전
증식
교차로
사대
무서움
볼까
휴직
##아름다운
1930
##옛날
가파른
누출
##제일제당
일간
노년
잔잔
서남
청바지
드세요
##㎢
##염
걸치
뼈저리
비약
전통문화
##홀로
##버티
양평
슈퍼마켓
##드니
쳐라
##뭔지
합참
병장
허허허
호국
최상급
정발
시늉
##환율
외칠
빈자리
국회법
종용
##주석
##든다고
강남좌파
맹신
각질
불러일으키
도깨비
활주로
맞섰
무방비
향한다
##구려
들렸
운전대
토큰
종신
##스님
이용만
희박
엑소
##채의
##분경
##해짐
##축의
##레인
스탈린
길목
슬그머니
날라
졸속
입법부
##의대
##스테이지
쟁취
목회
##조카
일례
새겨
대치동
두드러지
화랑
##콕
##사업단
포크
만장일치
##지만은
원자
##습
##텅
##김대중
그랜저
현충원
##돌파
정상급
##봉투
가정용
무임승차
승부수
계류
가닥
김재규
잖아
피칭
##유세
후려치
실실
##만을
잘나
뭉친
쉐보레
평년
현대인
도전장
헐값
정몽준
매달려
자유도
##창아
##실제
##당연
##액션
##빔
둘러
초연
발바닥
확장팩
수교
##드셨
이태리
##엇다
불순
유소년
##억울
화병
남아도
갑작스러운
##저지르
해프닝
##항공사
연평해전
속상하
##맹의
날린다
##잡아가
국수
참혹
성직자
##끼친다
녹지
##마일
껴안
##다녀
##핫
번이
무고죄
나이지리아
##헛소리
##선가
사칭
##약국
휴먼
패한
머슴
이중인격자
서바이벌
컨퍼런스
열연
풀기
##마약
##위성
##연극
베어스
아미
라오스
어쨋든
aid
##철강
배상금
틈새
리튬
##일간
밀폐
##】
참배
모공
풀려나
잡종
상대편
후드
쫓아가
죄짓
1972
##행세
파트너십
목욕탕
골절
##러브
보드
##드신
열심
##처에
강효상
소리치
##학번
상세히
##장년층
존속
시드니
어리버리
##스러우
과대
무턱대
아이파크
공성
개보
쾌거
##쯔
##일텐데
징후
##기조
재취업
정액
숨긴
만류
##어른
##비아
광진구
눈동자
저변
##고등
수없
민의
SS
날강도
##라이브
엄지
녹차
##구분
##걍
고군분투
밀도
내사
##상권
단련
받아쓰
안간힘
검역
좌편
색채
가발
##애서
아래쪽
피지컬
##죽여야
예술인
##2019
떼거지
##살의
선풍기
국제선
선심성
폭스
##자구
파괴력
##오른
##습니
국부
##계단
직계
코로나도
다뤘
##간격
폐교
##당해도
##뱅킹
##나자
##안타깝
페루
##어떻게
복당
주길
##쩍
친화
연패
승부조작
감투
##늘리
기억력
진솔
뾰족
##쉰
후인
소관
##물자
##이슈
승강
쟤들
##어휴
##터스
비관
자살골
수납
지낼
음란
##기원
##아파
##잖어
##여수
IPTV
##학부모
##여의
##몰수
##미스
발전기
요양원
기사단
일부분
위자료
심부름
클리블랜드
목격자
##빠구리
##이럴
##게임즈
##나마나
##주말
샴푸
실탄
웃도
김두관
초능력
##일전
동유럽
케이블카
팔다리
입안
기무사
방황
오보
이세돌
업무상
소화기
말길
사고력
이랜드
지나갔
##쩔
후지
어여
곡선
##아마
서훈
튕겨
강남역
##처형
세세
특가
주라
평택시
##주요
꺼냈
##생긴
판세
##어이없
북한산
이브
내려앉
##헬
참치
찍혔
휴전선
##지휘
민국
##라든지
##구미
##노라
핏줄
##허용
데일리
말문
어버버
놀려
WWE
니년
탤런트
CG
평했
실효성
셔틀
본다고
##천사
##일으키
별일
반등
##퉁
굴러
##블리
##구경
##뉴욕
들러
1977
부적합
DC
주총
숭고
##문과
벌기
##도입
독한
모험가
설교
직진
유사시
에프
버스터
오른팔
하부
양사
##교원
점잖
##민노총
커브
##위선
역효과
진가
순천시
조현아
강물
명나라
행패
움직인다
##입법
호러
양정철
##련다
거시
멈출
##패밀리
##무한도전
유모차
##데미지
합병증
생업
##은디
환매
##분도
##타도
따왔
CP
##따라가
로그
기쁜
##아산
트윈
##스펙
지나갈
베리
혹평
제인
기고만장
나참
출몰
슬기
##불리
포상금
oid
제보자
하계
##TF
아토피
##애플
넷째
제천
##저녁
엄격히
##신아
피의
신경전
오호
성태
자작극
##까봐
한줌
교량
##선거구
##도서
##개표
변장
가려서
저질러도
눈꼽
초록색
갉아먹
어업
대림산업
엘리자베스
스무
##계획서
##코스트
테두리
멈췄
##광화문
##흔들
섭섭
소각장
##다더니
단풍
쓸데
##계약서
몰려다니
##승부
나쁨
소방서
##전혀
##제어
##플라이
통쾌
김수현
##제안
##소형
돋보인다
밉상
늘려서
끼얹
BTS
##쿠폰
쇠퇴
명작
해산물
성신
화염병
##중개사
##윤석열
이글스
작당
강팀
##터치
##귀족
땜시
한이
도도
##가이드
##2005
가까웠
포교
들여서
##레드
##정치가
##거다
단발
##미션
##문가
##려는지
아랑곳
UHD
돌아선
날라가
범죄인
차린
대나무
소중히
쳐박혀
회고
선상
무너진다
##준다면
기저귀
##착취
파주시
순항
실크
그루
헛발
##도다
위약금
당도
145
##LH
##자제
쓰러졌
설화
AK
호주머니
##실습
자서전
흐뭇
CIA
날아다니
좁히
부두
방조
아네
월등
##이벤트
진수
쪽쪽
##교도소
태연
마사오
##됩니까
##도우미
곧장
쯔쯔
이름값
카니발
콘퍼런스
다룬다
학회
남양
트윈스
##유산
풀어놓
쑤셔
##전담
격인
슬림
##주시
##개성
##찾아가
쳐다
피치
배드민턴
##처리장
전자파
포석
바꾼다
여객기
##현대차
기권
귀순
매사
독박
워크아웃
굴러가
오락
해상도
##죽였
강원랜드
루크
##망해
성씨
볼보
비스트
##글의
캐릭
##살인마
공론화
접경
##동료
##가려
대꾸
직거래
푸짐
##하구
우라늄
눈썹
톡톡
##무서운
현존
제이
불명예
##반아
찾아갔
컵라면
##해봐도
요한
자부
휘말리
건축가
싶어요
대책위
##구호
음색
##포트
산이
어지럽히
모병제
관리도
제일모직
##동해
로테이션
전생
대시
록맨
손모가지
##핑크
망가진
구려
신지
##J
##혹시
갈고
부인과
##해소
##달인
##찬의
극명
##편하
##건도
족치
들이밀
최저치
암담
글쓰기
##경부
##고맙
최전방
맞대응
판매자
왕족
계세요
헌혈
실루엣
빌보드
토스
##댕
##행인
부숴
오르내리
##세일
연락처
미셸
노모
마법소녀
##택지
깽깽이
실증
소양
막차
113
스캔
대학가
##서야
##과학부
양궁
##다발
##하트
용암
##수영
##정신병자
나아질
아플
저성장
##게들
##따윈
의결권
사골
희석
##오마이
가지도
정파
가네
기저
##프리미엄
조교
어머님
##폴리스
글러
##추구
오른발
맛없
##톨
전관예우
멱살
쳐드
##퇴진
##언론사
참회
저래라
2025
싱크로
##자한
##다던데
죽임
스테이크
##중견
뉘우치
동월
사려
들였
##둔다
찾기
영창
발단
##머의
##조회
무법천지
##쟁
##환승
고자
양육비
깃털
##등부
송영길
던진다
시달렸
대차
곡소리
##뭔가
내보냈
술자리
신음
##북괴
심할
해악
도맡
초동
동산
가했
와해
부회
개떼
고블린
마물
##1500
초안
운수
격노
##우가
##퇴
협찬
##환수
남길
번은
충신
빈틈
##기리
##경색
참지
떠도
##쩝
신촌
재빨리
벽면
##포가
은은
계집
뿌렸
오브젝트
소심
##병사
면전
오리온스
중금속
##.'
레슬링
참말
##180
##타이
식용
까마귀
원곡
KGC
##사양
기약
경쾌
##인회
보듬
유방
해머
끼쳤
미일
##먹여
##단절
야망
##방침
죄악
수개
단물
신예
갈수
내려갈
##카운트
대들
##창작
젤리
##깨끗
##㏊
550
왼발
웅장
숱한
타살
##날인
회부
##지령
예기
악어
모면
말귀
저럴까
##된다며
얼핏
농부
자력갱생
지열
척살
울프
심포지엄
##위대
꿀꺽
진척
제독
##밸
배당금
경제학자
##택배
타개
후원자
에이전트
상큼
섀도우
##송이
갖출
마오
##출판
##수칙
프린터
저격수
별의
##등록금
프랑스어
##비핵화
대검찰청
문틀
준다면
기억나
테슬라
##제로
맞춰야
범주
##수사대
걸어야
끼칠
##확정
강호동
트로트
샷건
##인줄
##실내
부제
결백
구절
##천시
높여야
휴스턴
포섭
개각
거물
상류층
음료수
JR
##태세
스파이더맨
김포시
자연히
##다퉈
##날씨
후쿠오카
공법
달아나
안재현
피임
##불러
한화그룹
널려
##뇨
##음의
요런
파밍
##첨
속죄
##럴
##덩
가져갈
해충
환전
오프
행정력
대인배
피로감
맞히
모셔
정할
명곡
심문
무한도전
##다니까
연정
아랍에미리트
중하
가정폭력
커스텀
철근
후반전
기념행사
신탁
##저장
##정화
##파와
sid
구토
##｜
##부회장
문득
##자산운용
보리
##령도
경심
우라
샤넬
##불로
코스튬
식별
흘러나오
전망대
렌터카
시행착오
##TEU
헤딩
타파
수심
제멋대로
농작물
강동
거란
##연애
##특허
대물림
깜깜
퀄컴
첫해
홍남기
경멸
경제자유구역
태산
미생물
##을라
환하
##관절
##막힌다
##인거
전임자
##한다니까
##시켜도
존엄
##행과
##기견
밀어부치
분장
풍미
안일한
##소위
추행
옥션
##풀이
##혈통
머리통
송출
지양
망칠
##안과
하룻밤
친목
##개최
##때기
파이프
보령
##쳐야
롯데호텔
##소모
풀리지
내란죄
서클
쌍방
모델링
##탈의
1971
##장상
##띵
구민
우루과이
버르장머리
##티스
열중
권리금
시종일관
##선비
##으려다
##완료
차출
122
엄하
비어
앞쪽
친서
준용
##제끼
##자국
살아날
도매
도망갔
매운
스타일리시
메르켈
1948
일터
지도층
2400
##욧
난다고
손놓
출입구
배운다
짭새
##요금제
듬뿍
##지명
어떤가
폭설
##입맛
퍼펙트
일장기
##뉘
DB
##거니와
앞당겨
생화학
레이디
낙점
홀대
상수도
##곰
붙잡혔
전단
아멘
개새
##만한
냉각
##과연
##영토
상하이
##조명
건조기
혼잡
튀어나온
킨텍스
어버이
##고개
몰려가
사체
##실질
패자
유유상종
##선배
126
멸치
##실현
아키라
이동해
공관
지킨다
초음파
볼수록
용산구
진절머리
##명예
##".
이재오
AC
##대대
##출력
##존중
위아래
##납
갖춰져
논두렁
빗물
동래
배꼽
생태계
BPM
타이탄
##사지
##기당
##염수
떠벌리
가까스로
나아진
##법무
숙지
##찬스
##각하
116
한국군
스카웃
##고지
한다니
##자동
본분
오이
열도
종점
찍혀
##키나
실렸
생김
잡힐
결투
장탄수
어불성설
뒷구멍
험난
도난
##통치
건넨
일손
NLL
##플랜
가창력
대왕
##준이
세계일보
전월세
교포
##쓰래
연기금
넥타이
재능기부
오름세
##뷔
투하
신중히
견뎌
##깎
샌드위치
반년
까놓
##오프라인
거래처
##법조
강동구
안이
이해력
느긋
기틀
##관리법
거북선
##서요
소리지르
##예비
아프가니스탄
BS
슈즈
##수집
##장터
스커트
KDB
금물
진료비
##훈
객석
##엔지니어링
충성심
점퍼
아프간
따님
박찬주
##짜장
섣불리
가파르
##부작
슈틸리케
일으킨다
위정자
##물리
##주머니
가신
양형
재학생
쭉쭉
마취
코난
번만
##패치
트렌디
요가
페인트
##꽂
커피숍
##거래법
참된
히로시마
가열
원어민
밝혀져
병원장
지으면
힌트
지휘봉
##인터내셔널
내치
중용
목표치
어울릴
뭉쳐야
다정
훈수
니즈
장의
병자
드셨
결장
##컬러
쇄도
상고
##사이비
미운
산모
향이
144
프라
##어업
콤플렉스
제철
##저래
##위당
송치
팔찌
활동가
로이
##적금
명장
재가동
##어택
와일드
이종걸
트롤
폴더
불거졌
청계천
##검표
몰릴
돌아와서
당혹
정정당당
##란스
바를
##드렸
소수자
공중분해
전광판
~!!
힘듭니다
없앤
##인걸
성서
##피크
선율
지역인
##다이
약관
순순히
마술사
떠서
따낸
강풍
현기
놓였
유한
전입
에듀
암묵
체인지
##팽
연설문
##지배
양현종
뻥치
무지개
꺼려
머무
##해다
말미
##잡이
내려간
##기피
낙하
춘천시
노동계
강함
혈맹
##부린
졸지
기념품
성형외과
##이이
생겨난
할지라도
연어
##새꺄
##어니
파시즘
근접전
거저
##하드
피신
모모
승기
사무라이
##말기
칼라
수준급
스트리
##밴
잊어버리
##축하
속편
지멋대로
##대지
##만주
##학기제
##연방제
첨예
몰아치
음란물
##후보자
조달청
속임수
시끄러운
시크릿
중소기업청
핸들
##게이
아하
아스팔트
고뇌
성전
##제외
##진주
##밀도
살려라
늙다리
사업체
이효리
심석희
질리
상전
사저
표로
##하진
탄원서
극심
항쟁
##키스
항체
터져서
담백
이겨낼
한걸
##요의
##지에
소용이
##필름
수렁
해이
##아머
아동학
##진지
작살내
""
데가
에도
##재배
계수
때려야
##본당
##사무실
단행본
동문서답
왕비
실망감
##시진핑
##파이터
일침
의왕시
깨진
사뭇
##BR
총체
##직무
일의
투병
##디스
##작인
##베나
다변
보탰
문란
떨어져도
신조어
어려워졌
##가상
네거티브
정기예금
물귀신
sk
노린다
선교
이루어진다
##하청
##구마
사로잡혀
##그루
##돌봄
##워킹
특보
심리학
논조
승산
괴로워
##뤼
##깃
##수렴
ㅇㅋ
##고치
##정류장
##소굴
가소
어휘
식수
르네상스
인천항
##예측
최적화
흩어져
##이내
주점
섬뜩
##플랫
##경대
대학원생
##통운
샐러드
최고위
##회생
2200
간지
노랑
오판
그니깐
##보여서
채찍
약해서
증후군
재팬
##존엄
겸임
색감
배부
도색
##줍
웃돈
165
##문화원
##동영상
송전탑
##마구
굽신거리
전도사
갑갑
살펴볼
이상일
1968
무릅쓰
##고양이
케이티
쪽박
no
잠적
##낸다고
미향
하긴
지방대
##오페라
낮춘
평온
일식
##아일랜드
하등
경륜
##오션
스파크
그제서야
중공군
##빠져
##대북
##피트
##작자
##워터
인기몰이
고안
##낀데
향토
값싼
휘하
봉합
전전긍긍
제품군
아디
기쁨조
처자식
씨름
함락
펼쳐질
##행정부
로빈
걸러야
##누굴
돌이켜
##의류
공소
물거품
스토리텔링
##전설
##가동
##뼈
고운
##별의
##급인
입혀
예리
거슬리
브라이언
##우린
불린
남다르
##반복
넘나들
##우유
낙제
##퀸
기동력
설거지
밀리지
##비난
##잖냐
##계정
모하
##자회
##폴리
빨갛
만취
항생제
##아치
크루
나온다면
##됐었
수수께끼
삼키
붙일
기어이
민원인
##ｔ
합의금
악인
부담금
대전의
버텼
추징
##위생
##더군
꾸역꾸역
전동
117
##뒤지
##이소
튜닝
전문대
##어여
##신가요
도당
상한제
기정사실
총대
##버드
##신라
##아이템
당면
기형
지날수록
박유천
##갈까
사은품
##‧
삐딱
##하곤
뒤편
본의
블로킹
##박수
##킈
##모를
##군청
물동량
휴대용
좁혀
서태지
##망이
양면
에드워드
##설마
관절염
##기력
테크닉
##러라
고위층
추론
##육아
고배
총경
포켓몬스터
유흥
1969
반듯
창간
##월세
##볼일
담그
폭리
배드
데스크
비나
##분할
부들거리
얼릉
블라인드
외세
어지럽
##자영업
하마
##돌려
##오지
나이스
미라
콜롬비아
##도스
먹힐
실생활
개밥
##원서
who
레몬
트라이
강서
놀아난
트렁크
##틈
##배럴
출사표
수리비
주선
카스
건너편
에센스
외로움
인내심
대용량
##개그
여가
##스카이
메꾸
##->
설상가상
##말라
따라갈
혼혈
깨알
##뉴타운
울진
##시킵니다
웅동
여념
힘차
반듯이
이병헌
목선
골렘
계엄
간다면
##공직
통용
##체조
내진
유골
##계망
리베이트
화분
남아프리카
강림
강의실
딜레마
중도금
불난
##다녔
##러지
##개년
##모아서
##이라고
##달비
##본다고
##곡이
유희왕
##유저
과오
이눔
##난민
잔해
주지사
재물
알아볼
갈아입
시외버스
##합격
심해서
스틱
##031
미네랄
##전단
초상화
리버
김세연
##국악
장학생
포커스
때마침
신동빈
씨티
쿠로
출고가
자동화
##감축
별의별
##홍준표
수변
독일어
받아들여야
이영훈
##분명
퇴각
화난
##명소
##딜러
놀라울
##하가
낭독
공구
##보로
##려야
대표자
앨런
진열
사재
유람선
지애
분향소
##축소
울림
##세워
연장전
빈곤층
##난거
게이츠
공보
##잔당
##특화
##배워
슬퍼하
도운
##내려라
강해서
##각종
##자이
대파
경마
##졌으니
##오류
배고프
개월
##시경
##햄
##발리
피아
키워서
##.~~
병진
원심
##그라운드
어학
북치
물든
재량
##유학생
젠장
앞장섰
##사이드
총학생회
남여
엽기
평행
떵떵거리
영동
성벽
##이기주의
조경
##텟
상판
쪽지
클론
저탄소
발끝
on
풀릴
##일기
찝찝
번호판
영지
입소
바빴
마셔
##시마
동호인
##손가락
술수
도용
##들어라
##규의
속일
갈라지
##동구
육수
실력자
직관
생떼
##보급
김기현
##문통
##라느니
##센스
샤프
##누르
부지기수
잘리
부유층
IB
UEFA
##아이돌
##에프
공매
끈질기
##호르몬
남동
승복
국민대
중수
뛰어다니
통지
퍼뜨린
##문화예술
본전
##질러
말려야
쥐꼬리
원폭
탁구
망친다
##잡히
175
완구
##전달
소국
##글단
미명
##커머스
친애
가위
만두
콘돔
이상민
영진
사관
문정인
##블릿
노예근성
투약
독설
매연
분유
드러
답사
장단
전한
꾸민
초인
##지간
승선
##~..
끼니
##댁
##담당관
한단
마카오
조목조목
영정
##일선
##사립
비워
개인택시
서식지
현물
계모
한경
소파
##고소
수목
##할아버지
쳐죽일
한패
##시킨다고
비일비재
어떨지
지껄여
생산직
##오리
공사장
여초
비무장
##518
##보수가
지부장
##그지
##재해
무패
기탁
신인왕
나폴레옹
트래픽
##병자
드로우
##악질
질적
슬라이드
##기심
##교장
미역국
##브라
들여오
##상거래
유스
시판
선동열
분개
##추경
난도질
연준
##이계
##골프장
휴양
예감
세입
총격
##㎾
모터쇼
처묵
총력전
##해했
푸르지오
결핵
현대증권
약이
##호흡기
맞은편
##때려
##가네
##안심
##개헌
내시
왜국
사용법
##분대
##다네
띨띨
##폐하
CT
118
바쳐
총알받이
##배웠
행실
죽지
분자
게임기
속수무책
놀러
돌출
조계종
초조
광명시
그려져
##판과
수하
시애틀
전남편
물색
배낭
의중
연하
여론전
부릴
앞당기
프리랜서
물씬
빙시
##갈려고
##댕기
적과
담담
##솔루션
##드려
##다냐
##포로
노약자
여생
반민
하남
##토가
구요
따라붙
맞닿
기회주의
다른데
시조
보성
세라
##안다고
다를까
##버렸으면
##자극
##불교
##평화상
지지가
##니아
##배기
아라
##왕자
##반란
야후
##거린다
슬라이더
##나야
##늘어지
근무자
노바
##덤
사우스
해수
시네마
파열
사채
영사
복부
김연철
따져야
##캐피탈
비장
유행어
##★
받아들인
##지니
##상생
영덕
배양
##신다면
시승
##터졌
밀수
무정부
구설수
##분담
##쳐묵
SC
##뚜
파벌
멈춘
무도
흐른
##중립
크롬
##잡힌
반대쪽
판도라
큰데
Korea
거리의
삼성카드
돋보였
##어르신
##입원
부러지
MBN
##반부
##려거든
##직도
감출
##식과
강소
##커스
##우리나라
조윤선
리셋
##연출
전단지
위시
작렬
산단
비료
NHN
새빨간
어부지리
1920
골드만
거스르
흡연자
걷어차
자명
말단
배급제
하질
##빠졌
##전파
수에
꾸짖
인원수
겨루
홍명보
말꼬리
아아
##사주
##학술
고노
한다면서
##강연
##미스트
##순방
정경두
혼나
워크
##국면
뒷배
127
##!?
##충성
##미쳤
진하
대마
탄광
이곳저곳
중견수
##취재
김구라
수인
전라북도
스포츠토토
자청
썬더
박자
성화
시방
##""
교화
##대변
##메이드
홋카이도
##러닝
탐정
기복
해군기지
SD
국교
바라볼
주사위
갑작스런
동두천
배지
풀타임
배리
갈망
##달째
차갑
##수주
08
담아내
비만
방사
드리블
출원
##수립
##테마
비밀리에
악착같이
##부활
##내렸
##포드
서지
복면
수트
패드
공문서
축출
접어든
일거리
##치료제
본사가
##아닙니까
전유물
아역
##신세
갈구
##까페
즉위
124
신학
관세청
줄거리
사회관
계셨
갈래
대도
빗대
행군
싸인
무수
사투
##박탈
묻혔
다이아
이철희
확실시
155
서한
프로게이머
##거린
구인
헤이
경미
손수
드린다
친밀
강점기
되살리
조아리
되돌아보
독일군
어리둥절
##트라
세안
붙어먹
무난히
##웩
##맨날
무의미
기본급
재치
왕래
명상
유분
자아내
직선제
살아오
##죤
써준
웅진
애리조
##도심
빈소
비누
공정성
##순의
테라스
##|
##편드
##가득
뽐냈
검술
##안함
AFC
##걸릴
시리
장신
미래한국
이노
##개조
체조
##갈수록
트림
아버님
삽시다
기로
단면
ㅆㄹㄱ
박명수
##팁
미움
족보
산맥
갔었
09
##버그
식감
##습지
해발
손오공
##떨어진
펴낸
눈물나
프리킥
불러오
신년사
##도리
이영호
##펀치
고취
동작구
##만점
##안녕
잇따른
살까
유탄
##영입
수비진
##웰
뇌졸중
##뚱
부지런
재촉
오랑캐
조중
의논
중저가
하동
교묘히
THE
마스코트
##전시관
##101
피부과
굴려
찾아간
남극
귀속
처박
항변
쉰내
##웃겨
궁전
##멜
뒷조사
일수
유화
실마리
##플레이오프
##사안
##첸
떠라
기색
##한강
##스트레스
떨어져야
청결
##대역
##충청
하루카
출입문
캐리어
갤러
땡큐
##발표회
할애
양양
조던
고속버스
일병
외래
##오토
획정
##쓴다고
지성인
브레인
##긴데
성품
마도
확고히
하버드대
봄철
##내과
웨어
##세로
##아나
네일
다른지
정교수
뒤덮
외야
금치
##골목
##카이
치뤄야
기울였
페리
모략
##융
탄다
##저희
독방
##재팬
##농촌
세법
심폐
##지구의
딸랑
가려내
인플루엔자
척도
전셋값
##350
##성전
입마개
물놀이
보여줘
모교
콜라보레이션
부글부글
피폐
합세
오뚜기
혈액형
##쒸
##옳
연신
코리안
방점
부랴부랴
차주
자격지심
##유튜브
기하급수
고독
##기다
##점프
후쿠시
##떠들
차츰
갈기갈기
내시경
##철거
분위
##면역
##001
GTX
손익
영위
습도
##은데도
##b
CS
부름
레일
재탕
##법정
기내
##성남
놀음
기발
##손혜원
김영철
##특징
UFC
넘어온
##∙
##당사자
공상
촉수
##할라
퇴학
고단
별칭
##린다
##정기
뭣이
양복
찌든
빡세
##이행
에픽
##세인
해괴
영양제
등반
##공방
시가지
왈가왈부
##라니요
뜻깊
##행보
필립
둔다
에반
조개
##신부
말라고
##극복
##고인
##안내
싸늘
고모
패륜
##득의
통했
글렀
##당함
##닥터
밑거름
##직구
실추
외벽
취해야
달의
갤럽
경재
신호등
누굴까
원희룡
갈지
사계절
눈부신
SR
가당
부렸
성비
등용
포맷
안겼
강연료
##지마
출중
##방송국
##잽이
##고식
##까스
병과
멤버십
기괴
수해
##올렸
##출
데님
놓이
##우기
##을려는
안장
##형식
##웹
모욕죄
베토벤
##찮은
거길
##플라자
##현금
추징금
##Z
지폐
구급차
떨치
중앙선
분쇄
빤쓰
파이낸셜
거참
##형성
알콜
지병
이정희
##더나
##어온
상어
나간다는
##식량
물꼬
##절벽
완제품
##치사
질린다
일인
##음악회
노숙자
따박따박
##관객
화순
##카를
고강도
가래
요구사항
갈린다
착오
##스페인
선대위
코칭스태프
민간단체
with
영농
연못
##탈취
테크노
팝콘
튀기
독수리
역세권
자해
지역주의
121
내려와서
상업시설
십상
순매도
##보낼
##권익
신격화
녀석들
소령
괴롭혔
봉지
##군민
금발
최형우
삐라
##가든
치하
친중파
촬영장
##땜시
유리창
대표작
관념
##소문
융자
해남
내려졌
편차
태구
입힌다
끌어들여
로리
1963
##몰랐
인대
##매직
##스테이션
##기여
##심도
##집구석
비수
나머진
어벤져스
장중
녹여
실토
##인칭
넘나드
승려
남양주시
여하튼
씨도
##적성
날아갔
아픕니다
마을버스
##최강
워크래프트
##떄
항공편
방울
##지겹
##꺼라
##그래야
기원전
##메트로
골대
##th
야만
주군
내려올
##당연히
##세제
##긔
대갈빡
조력자
##거림
폭침
세워라
##이래서
냄새나
##도박
##드레스
##코너
갈겨
진즉에
탈법
나쁠
##장려금
뇌물죄
##제인
다쳐
경성
예체능
건모
소모량
○…
학군
애원
이토
설계도
##떨어졌
약품
##높이
##삭감
차액
깔보
장판
##놀리
우환
##꺼내
##미투
폐선
숨겼
##구이
딸랑이
어정쩡
증강
패션쇼
재규어
고위험
##이겨
##을꼬
##노사
##지도부
몸부림
당과
보였으나
##찼
##화물
이끌어냈
전경
깔린
##편향
조오
##2004
##외과
##지는
##비어
콩가루
해리스
납작
##춘천
마음속
오롯
역도
옷차림
마스터스
##관세
중임
클렌징
##본이
##파도
##퇴출
뱅크
##CJ
해독
한해서
효용
##클러스터
##코미디
소모품
면세
위암
내미
오래오래
억류
##백억
도살
올려도
한국식
램프
##전가
##형편
할망구
##net
윈도
지질
더미
크라운
고금리
##렌즈
몰아붙이
선발전
아테네
케인
##산다고
달라도
##스코어
##필지
03
훈육
원할
극악
133
소비량
##기라
매개
백혈병
전화기
도통
자매결연
불태워
배수
##때메
포켓
쓰지도
##서원
요즈음
토요
교통비
아메바
피해망상
##감싸
##랑의
줍시다
아이스하키
어드벤처
##LED
##코노
iOS
석권
##착
노키아
다릅니다
앞면
132
획일
앤디
##복수
진두지휘
역전패
안타까울
괴상
꽁짜
코코
##드래곤
개지
단검
걸어다니
이주민
##킷
맹박
얼라이언스
강습
##음식점
##법규
##구제
##다르크
##할꼬
##돌림
수녀
초범
##닐
혹세무민
독제
##sec
게거품
밑돌
립스틱
낙서
소나타
##구글
오스만
금이
다분
봐선
##아선
미궁
##애인
기울여야
몰려왔
하의
##들어도
간염
##박원순
소용돌이
##씌우
##잭
신고자
했을까
이데올로기
영등포구
윌리엄스
파내
전반전
##==
사토
공황
##다인
##유족
아연
우익수
##욜
이천
##FIFA
개노릇
잇몸
진태
로이터
목돈
눈여겨
##터진다
이과
디렉터
미대
1962
1967
영감탱이
##이상실
소량
##통아
##메이커
##계약직
제갈량
남해안
##자립
외계
컬링
대낮
지어야
병맛
##김해
자유자재
달린다
월성
이뤄낸
##저기
애착
복안
##거주
돌머리
바빠서
되돌릴
미남
관습
불빛
초밥
총탄
선교사
토요타
알고리즘
책자
테일러
##리기
운석
흡입
TOP
##날뛰
##주유소
엄중히
항거
##털리
깊숙이
하스
닭고기
##cc
##구와
현관
기록관
원론
재범
##외곽
프린세스
승부차기
그년
철권
##추정
니코
##겪
##외환
하얗
혜원
##어리
헤드라인
##빼먹
방이
선이
##는다는데
예천
직감
사령부
##헤드
덮어씌우
임상시험
##상과
안마
유수
갈라놓
약진
온다는
모로
##무조건
박사의
무서울
##불감증
퍼준
폭포
써놨
한라
정보력
##이탈리아
페이크
가상현실
지력
기이
자산가
팀킬
더디
쓸쓸
일지
연구비
코르
##떨어진다
찬란
승화
할로윈
굳건히
ㅠㅜ
집어치우
번번이
##마사오
건드려
##될까봐
DPS
##금회
화백
WBC
함장
분별
청주시
서영교
##단순
온화
분대
자석
허리띠
기독교인
치이
들어내
##첩
레슨
반포
익산
잠복
수건
증기
가르칠
##모이
부츠
무주택
들어줄
경솔
불경기
광선
훼방
재갈
활로
반한
##등산
죄파
##력도
치민
어중간
가져간
에르
유라
백미
물러날
중론
##자격증
꺼낸
##지연
##편이
저리도
토나
먹잇감
##교민
##실무
최하
보위
##리치
차용
##자유주의
이사단
불고기
##드려야
학교장
에리
국빈
거침없이
끊겼
##노마
큽니다
스펠
##쩐
으뜸
살벌
ATM
장단점
모가
##행장
기왕
건드렸
##역적
밝혀서
계약자
소방차
험지
벗기
노원
##캐나다
##문학상
##페이스
루피
##그저
통탄
지친다
구지
산화
##용언
##이당
##벌써
고상
짠하
##바가지
##국기
쩔쩔매
신데렐라
일회성
그래라
피츠버그
##살려
##저것
##심한
끄나풀
##래나
바빠
##HD
##옵니다
##교익
터뜨려
##평창
관두
##롯
인공위성
성장기
##강원도
대림
달여
깨갱
은닉
제프
교섭단체
##보병
##서가
##감면
##일테
휩싸였
MD
구도심
##못했
##원정
##비행기
##잔재
손가락질
##구동
##경과
LP
배반
##돌아다니
me
터뜨린
총합
##무력
##공포
##소생
내복
##고속도
거머리
박스오피스
##조상
##풍선
##될수록
##떤
크로아티아
##지질
##기록부
부지런히
미덕
##오전
수배
행방불명
다반사
괴담
독백
완만
차리세
날카롭
프랭크
염소
시흥시
IBM
겉모습
##강릉
##볼트
##점차
##겡이
두기
탕진
고품질
고요
MLB
광학
내말이
##감은
서원
사각
행진곡
겁쟁이
부관참시
올려놓
최태민
문인
##마이크
마크롱
에잇
##ha
급선무
핵탄두
ID
##수법
##전반
##빨간
백지화
헬리콥터
지어서
##굴리
줄게
만렙
블루투스
KBL
가지마
핵보유국
산채
만진
풀어내
평민
지름
면면
경영난
복리
라니
진흙탕
퇴색
##온다고
비화
골밑
우상호
도어
1940
GE
망설
식료품
노점상
##정경
넘보
깨달음
##ㅍ
##엑
봉사자
난립
##양은
순례
##티켓
식자재
##조중동
소재지
최경주
꾸지
태운
뜨거웠
겸직
##한미
스물
스릴러
아바
짊어지
장기전
미터
##났으면
##스카
인당
여름휴가
쑤시
##역전
평안
육류
잉크
빵집
신진
오열
상이
##흐리
kf
관사
##갈래
빠듯
##극단
다승
##센서
##도약
##탭
AT
본보
스콧
##부당
민속
매니아
##적료
때려서
세례
##다이오드
간결
헌법재판
##짧
세컨드
나날
좌익수
저글링
치우치
스키장
##징수
##거래일
##라뇨
전열
라스
티베트
귀태
펭귄
키리
하인
비스
센텀
##오브
쿼터
틈타
세워서
##실시
괴멸
까내리
방문자
격화
깨져서
김재동
슈퍼스타
팽배
##걸이
청소기
발맞춰
KEB
엑시즈
대적
##청약
##증이
자인
##어시스트
이외수
노총
증빙
불나
남아돌
즉흥
눈매
가로채
##반납
##명박
건당
나날이
이루어져야
통신비
골머리
북풍
##긴다
##부릴
외교통상부
##내린
아울렛
울화통
불똥
다녀도
논산
##지부장
커리큘럼
##캡
권위주의
##청춘
가망
노원구
##할께요
##논술
##라꼬
##ㄲ가
백작
강민호
채보
비켜
기갑
폭발물
##니즘
##수력
##로군
올리브
타진
니혼
##수습
신지애
게릴라
희망자
상쾌
팽창
뒤흔들
##메가
##붉
여관
가마
##새들
휘둘러
디트로이트
구강
##푸른
##망친
이래야
정치력
시베리아
##졋네
죽여서
펑크
야욕
대표인
##스튜디오
좌초
캐치
매장이
##린지
##무료
순탄
아유
병영
대진
특구
임차
##한걸
체험학습
어려
독소
##서점
금메달리스트
고사포
여운
바깥쪽
순전히
오인
모일
##양산
##면상
##탄다
실리콘밸리
재판장
이니
준엄
소유주
비평
여덟
서독
필라델피아
##해골
공분
독하
빠져들
김지은
본데
꾸몄
불응
##체장
수혈
무안타
약도
##내려오
쪼잔
##쵸
워너
살균제
##오스
국민당
##횡령
도축
##드세요
돌고래
##희생
원통
##떡볶이
##깁니다
개최지
스나이퍼
마칠
고산
ABC
올림
스피릿
차서
##위크
고든
##내려가
##진입
사가
주려
데이터베이스
사들인
소신껏
관우
칼슘
사슬
##사료
##기통
##파라
대작
문대
시식
##수비
흔들릴
뭔들
머리채
비뚤
광산구
전자책
안다는
간병인
명과
간수
##야동
돌아다녔
##피우
##백신
덕목
광양시
남과
스탭
선거제
개짓거리
달나라
포옹
##카가
터무니없
군소
##보트
사냥개
##퀴가
한단다
##의해
##서명
주스
에티오피아
구금
트리거
파인
제이슨
켈리
걸작
진실로
카악
이세상
염장
찌꺼기
연주회
아키
황폐
우리투자증권
##망언
동네북
우드
##딱지
##마져
이튿날
##포스코
쏜다
앞마당
패트
아닐지
충격파
##리알
두려워서
할리
##진학
갈비
##몫
골통
빅토리아
청송
충만
##시안
미학
##체포
메카닉
##파정
리퍼
##물정
서북
그물
털릴
##잎
기술인
저런데
국제통화기금
##리티
##동반
작위
건달
입담
##색깔
##챔피언십
워리어
끓이
청순
##버거
가로등
성교육
원두
스치
명색
##뒤집
##역겹
지선
출두
주공
연골
매트
분하
출근길
메주
##탐방
점멸
캥기
##아하
##용시
인품
팬택
##협조
집의
##세율
소생
##꿔
##짐승
쿠웨이트
지켜줄
입항
##렐
##치유
##시비
경이
퍼거슨
##선인
유추
요코하마
바칠
천한
식습관
자빠지
##올려서
맷집
##망덕
눈덩이
즐거워
한바탕
주치의
##틀리
##립니
안전장치
감량
##쿵
값진
##특례
영암
빙상
역사관
##동자
백원우
동정심
##깜짝
할라고
낙태죄
문수
줄임
##브라질
##담회
결계
##호식
냅둬
주술
아지매
##기일
##꼬나
수개월
꺾이
##방울
여고
기행
##아재
김미화
이지
노련
쏠림
바랐
프런트
때려치
##췌
코카
이모티콘
국제공항
살상
국사
##해수욕장
##방사능
왔으며
트릭
코스로
퍼팅
##마가
겸하
바텀
##경향
##공연장
##진다면
여겨진다
바리스타
소비재
##트롯
판권
##화이트
빨랑
##넘기
히딩크
숙련도
BC
##신문사
부설
떨어짐
##미칼
뚝딱
바이크
엮여
선입견
##스타트
호통
이부진
누수
##고조
놀림
곤혹
KF
느낍니다
07
이정미
행정자치부
뒈질
하류
최강희
주교
현대사
##나와도
헛웃음
##자다
모여들
빼어난
트랩
리니지
##통로
사회단체
상황실
##ㅗ
흔치
부러우
##나누
일등
##2500
##도장
기본소득
천배
결연
동종
너흰
##품안
##담사
##사라
##베기
김진표
옥죄
##놔도
##내주
##플레이어
사족
코스트코
살균
호반
탄로
질려
깎아내리
##프라
관악
전법
##유엔
##도로공사
애틋
##장병
심리전
찰나
##참모
국위
산림청
바이에른
Kbs
미로
체급
야마토
##넘치
지경이
달라요
##시공
농간
##속국
불러도
매수세
병풍
끌어올릴
##가왕
##라매
통신망
비기
##건데요
쾌락
어원
사립대
사무직
디아블로
##2002
열불
##아아
썩을
##ㅆ
##연동
천둥
정설
경남은행
한의사
##전역
지주사
일깨워
페달
거쳐서
임은정
어째서인지
구해야
득실득실
기겁
지미
향연
##제조업
한족
혼내
셔틀버스
##파전
##업인
개종자
메디
##!??
묵념
##고야
끈끈
공실
거하
회로
횟집
GPS
매료
식중독
##드려라
이즈
##트임
대장암
##측정
강대
##원사
##서구
정몽구
레지
드래곤볼
##멍청이
2300
##110
법사
케냐
통찰력
##조용
투자처
서킷
##아닐까
앞이
##백수
물리학
##커플
그레이트
##삽
스탠스
어머
##영재
풍광
존심
뜯기
엔드
정품
비키니
바쁜데
스즈키
##개정안
##지민
##리버
칼로리
들으면서
##모금
감비아
링컨
##시드
태종
쿠페
항아리
잡혀서
방제
그러면
퉤퉤
가덕
탄성
편해
도륙
##재무
지정학
메이지
정선
한입
##됐으니
여겨졌
이온
##바둑
유트
블록버스터
성동
스노우
와일드카드
오갔
##여단
##방송사
올라온다
상냥
전업주부
의과
졸렬
뭉클
폐막
적격
##가만히
익성
방불
꺼꾸
전업
투표소
실제론
교향곡
이찬원
사본
##유업
##일인
수족
옆구리
유희
##연수원
##아가리
반세기
##아이폰
고압
##묘
멸시
##위탁
몰고가
뒤져야
나경
##권역
싱크탱크
##기본법
##발굴
분출
따먹
밀실
삼척
##증대
바쳤
꼭지
전주시
장사치
##건다
찬탈
철원
심성
허망
이미선
리츠
노년층
##질병
##애초
설전
##비슷
착착
잘라라
152
이승기
갈아치우
여긴다
##난다는
중학
##작성
발대식
웨이
무심
안드로메다
빚더미
이지스
비석
##지럴
다름아닌
영유권
명사
##결산
후일
##개당
정치성향
데빌
##성실
튀겨
##사체
##습한
바그
##재원
##경영인
##배틀
우회전
소사
##공학부
나체
말썽
##지난달
##표로
##필터
조급
반품
에바
##할려
살래
##국수
##시킬려고
##구니
지날
묻힌
##도라
##관람
##문임
통통
인터페이스
##조아
옆방
척척
결사반대
로우
쓸개
##간대
유니버스
비철
탈레반
##번역
역지사지
의료관광
단수
UP
워프
##마녀
과천시
버터
사우나
양적
##려도
오타쿠
연립
TVA
공공연
본때
최고점
##제철소
아꼈
##신상
천민
애견
##구체
이수진
파출소
##부지사
고흥
특종
##ㄲ야
그리핀
동사
드라이
구가
##사옥
경복궁
##태양광
##모자
포터
불바다
견줘
아리아
##바디
무궁화
##발견
강해졌
##사망자
자구
개털
영산강
디바이스
##금충
아스널
바꼈
##아그라
##세븐
관동
발표회
현행범
낙타
남일
허약
##쟤
##센트
이성계
과한
영국인
불친절
데려온
이은재
##연상
적인
라운지
##차림
얌전
안과
콩쿠르
태양의
QR
태권
문전
찬밥
##하반기
##붐
##상호
##신규
##조사단
질렀
##폭락
고함
##하나님
준설
코미디언
##워커
##폭격
징조
힘겨운
##트론
주동자
불가사의
모건
##해경
선거인단
교권
다량
##취약
땅덩어리
##불만
지켜봐
##아스
겁난다
등대
유배
##맹이
재명
138
부풀
총독
나눈다
반짝이
동명
##문건
##러블
튀김
압구정
##새낀
어려워서
울컥
스페인어
##장수
내려진
##주둥이
했잖아
개역
혹사
정봉주
##으니라구
내한
##주권
##기다리
김한길
공속
손들
##억불
FBI
코딩
##겡
머금
우길
노숙인
토할
##주인공
FM
##끄레기
거래일
내줄
##헌의
##비치
##불문
뚫렸
##게라도
불러올
골랐
##신장
출항
##허위
문화부
##공예
##부류
열렬
##어서라도
퀴어
근황
##계열사
휘말려
##통신망
##동강
님의
균등
블럭
##파로
음악가
##참고
##자본주의
##슈트
김재원
살충제
강수량
##연방
미스테리
변속기
##비즈
민영
##보험금
광분
##매년
운동화
초고층
??:
##의료진
말렸
합숙
과금
부식
언뜻
교통안전
자성
동독
오다
유적지
철광석
##맡
##독제
유니온
황가
손아귀
##후배
흥청망청
마야
내포
##충돌
휴양지
##챈
카터
격퇴
남대문
내자
빼돌려
역세
##생겨서
성난
감도
저쩌구
소린
어찌나
##KIA
민노당
잡소리
시제품
방글라데시
구자철
교제
##커뮤니케이션
설립자
##골든
##원화
국내선
##다를
리프트
만사
알리바바
##장판
호드
공금
뒷짐
통풍
##모른다
하체
전환점
마계
정의감
##출발
취해서
침실
실신
##던지라
##GS
초코
힘주
##주류
##상하
##잡종
##통이
빨리빨리
##위장
화훼
내쉬
##앤드
부스트
라그나
편할
##어울리
##보건소
별세
우루
##옌
##~,
국화
##변명
공고히
루시
##이해찬
두환
##상무
인준
타의
밀입국
사필귀정
직간접
148
고추장
고장나
높인다
태백
불운
터트려
성병
김지영
##감염자
건져
##화합
나이프
역겨움
입막음
네이트
벼르
그새
여길
##출시
한국일보
##궁의
04
행한
물으면
매점
발키리
무어
스타워즈
자이언트
스트레칭
여과
##임무
석상
워낙에
##파식
빠를
신관
기장군
##인터
분홍색
알몸
가져라
니켈
소형차
##각지
남남
##동화
종신형
##신순
여행가
##당해야
채동욱
##경제학
문지
##사파
관중석
실명제
##의뢰
피처
산뜻
선구자
##참석
##교정
2100
NHK
##천장
06
뜻밖
##겔
영양소
쇼쇼쇼
병균
개헌안
덕택
줄기차
스포츠카
주임
일찍이
##껍니다
진주시
##군주
##공조
허울
##트랩
##표도
##무개
내국
피라미드
베인
##합창단
AR
서로서로
129
개인별
복숭아
송철호
미술품
개싸움
##수고
특조
재정부
##출처
##억대
##신인
##다면서요
남긴다
##SDS
안철
히드라
##큐브
##소린지
자도
망토
##거덩
희미
##ㅌ
두터운
굳히
매스컴
##?!
##브리
엔지니어링
쉐리
공예
외인
부딪혀
고온
후베이
급박
교통망
체불
제구
##진도
마코토
##병동
우르
교통수단
회기
1966
##멋
알긴
적색
피도
##탔
##공영
성배
오름
여차
특산물
##여중
##클라스
회의록
사회봉사
리얼리티
뼈대
참관
##이체
하튼
##지역인
부들
340
양천구
##극본
탁상행정
주정차
저열
북경
자금난
알제리
화교
##김경수
신상품
##가계
##볼래
##빙판
##에코
쏠린다
착지
##무한
석학
##그래요
소급
낙엽
일까
##추석
모자르
##새벽
부득이
철학자
이변
무참히
##찢
##외대
개인주의
##송금
승급
훈련장
채우기
화소
##변호
꼬리표
##가져가
열띤
평정
삥땅
##편집
##대충
보여진다
잠재우
##급체포
이럴수록
##강한
##체로
망한다고
도전자
건방지
##테마파크
소견
헤드샷
미진
에이미
작별
##공짜
자결
명쾌
둘러싸여
##라거나
##납부
##침입
##압력
배알
배신한
##렘
탄식
처장
정주
직함
여진
추녀
거동
개소식
##조폭
불식
##적절
박주민
러블리
##산당
던가
항공권
능선
##막힌
육식
노엘
한겨례
##벡
페이퍼
##자석
##크기
볼펜
젓국
박히
걷잡
Love
환경영향평가
본격화
##지근
고속도
##각서
유관순
성령
##테이
답습
##아닌지
##폭도
대자보
##캐피털
불어나
비수기
헤어진
##공과
따졌
비웃음
##믈
외로운
명맥
##파이프
확성기
##소방
장풍
##실리콘
달아났
초계기
##재미
프로그래밍
왕좌
두드러졌
가업
인터내셔널
개강
아야
##활동비
로열티
집집
심심찮
##본사
친모
##분당
원더
여기자
##진정한
내분
기염
##배려
##민중
퍼질
알려준
담지
합창단
주효
보아하니
족족
번쩍
나타낸
##과자
세븐일레븐
찾아온다
떨어뜨려
플라워
셀카
##운수
137
맞춰져
시구
광진
폐가
천적
도와야
쟁쟁
러쉬
신태용
지어
베트
##대륙
요놈
빚어지
로열
##환원
양산시
##아메리카
##방지법
앉힌
정현
일러
##초딩
변함없이
잘라야
##미동
##발이
##그대
좌회전
능욕
라틴
##재활
##구걸
##서양
미개인
##계장
##선사
##석방
얌전히
##금이
헛짓
##계신
시안
누설
망가졌
봉기
예절
##조용히
스트레이트
##불과
##추세
속인
##빙신
1961
갈렸
##쭈쭈
브루스
##봉이
##웁
편익
마이스터
빨려
##공황
양준일
희토류
만하다
말소
정오
##흥
##툴
슬럼프
옵니다
뚝심
##농사
##가야지
AKB
흥미진진
들려준다
양치기
귀추
상영관
##시야
플로리다
베르
폐사
번지르르
##사법부
태양열
폐수
안무
뒷북치
##기득
##표정
마사
by
##노출
폐원
일색
취객
##꺼야
극렬
##한우
블라디미르
현상금
##똥개
가차없이
장타
##조선소
아스카
조삼모사
##곤란
행각
##와인
##선양
몸짓
예비역
안성맞춤
표지판
계보
흑막
회고록
틈틈이
지켜온
##인에
엘레
쌍도
앞선다
##느그
##석상
##여객
명명백백
절개
글의
고착
##FA
최전선
별수
주심
해결사
##참가
근소
정당방위
##오바마
##베인
상체
콜로
##모션
효소
루마니아
##온천
##그리드
##가인
소실
내보
쏴서
유미
카를로스
빌려서
폭정
별별
##니만큼
##보컬
##해안
아이언맨
새로이
##예보
##시정
단맛
##모터스
##퀘
와이번스
역주행
구단주
버럭
다방면
장재원
등시
부강
고참
황우여
뛰어드
##큼
라스베이거스
##넥스
렉스
무드
심해졌
차남
##경연
##보궐
##리자
건방진
##상한
배열
고아원
카페인
티끌
##분류
1964
임창용
고영태
프로세서
##늬
컴퍼니
##기생
미아
##명칭
의성
솔로몬
134
약소국
홀리
역력
##조만간
동승자
##변인
##우대
봉화
##다닌
부주의
개진
##조원대
자충수
족발
까부
##흑
직설
더빙
##신발
##제보
##인플루엔자
깝치
##견제
136
차상
감청
달력
##갑자기
파스타
##긴급
##꺼지
##올레
교두보
##좌석
##꺼져
전사자
완존
문두
팔촌
다스려
##일요일
입혔
세터
해낼
##PM
한답시고
위화감
##챔피언
입힐
정두언
만년
대니
사들였
혈당
용감한
##복원
나빠졌
##연비
기록물
꿋꿋
##**//
제반
OVA
남파
좌시
서유럽
간곡히
양주시
##바야
정해졌
명불허전
##혈관
능한
마누
콘테스트
##~'
##중소
두드려
##달료
호적
귀결
지망
여장
도로는
부엌
##무스
부피
##일상
##내지
떨구
##으리
화났
첫발
다져
##만인
털렸
청중
영화배우
##점대
하남시
날아간다
##단도
##차인
##130
##2003
##상상
##시킵시다
ICBM
정사
풍토
##헬로
고삐
부녀
진즉
유산균
거처
매드
데려와
알렉산더
금산
독해
##흑자
##쌤
##일지라도
##믄서
외지
일동
판소리
##어법
##예정자
하리
톱스타
허상
흐른다
네트
##기획사
낸드
델타
##출입
PF
금년
##당당
견지
##조지
빠져나갔
어우러지
##순천
나왓
샅샅이
사들여
##대당
냉방
찰리
##o
원리금
레바논
거진
존립
##끝내
##㎞,
자판기
이뻐
##떵
##는고
##로직스
##가사
추모식
##어라고
중급
순간이동
사슴
이중인격
##따라서
##아드
전권
팝업
##한류
서귀포시
공공시설
##혔
미온
자락
##원주
케네디
기치
봐주지
근디
토탈
dog
##량도
숙식
군비
##열린
극동
싱싱
저울질
##청주
틀림
##술사
현대산업개발
끌어내려
남양유업
굽신굽신
뒷모습
사셨
고시원
해줘도
요르단
자책
고점
##스크린
의미심장
촘촘
##SBS
##보호구역
##큰일
부셔
##처묵
##심정
휴게
##저게
자퇴
산사태
마키
##으신가
니기미
##쾌감
됐으니
개악
조그마
##말리
스프
외친다
명물
##케이블
라이선스
레퍼토리
반죽
식욕
사당
따윈
김신욱
문맥
나이키
남북통일
GT
##나인
##몰라도
합작품
##장부
탁현민
##펠
##리오
환멸
화형
##소총
성관
만화책
채집
Windows
돌기
끌려갔
극의
엮인
잘린
##들어갈
싸움질
영영
##한글
##대포
박지
이라
파랑
##?.
고철
투표함
맞설
미쿠
##무상
파운드
##허의
빵점
꼴불견
무수히
142
디폴트
왓슨
관통력
##발기
나왔었
##기만
유통망
이재민
##방패
처박혀
복역
식비
##잠수함
유실
레인저
##행각
상책
내용물
욕실
열나
상병
견인차
축이
쇠뇌
김정남
망함
하란
박용진
5500
과분
##상당
내민
노사정
##어쩔
##출국
울트라맨
##장려
주무르
그린다
특정인
옥중
히말라야
##계수
##워즈
선곡
##드라이브
해열제
##혜가
푸르
강인
판촉
리딩
내려와야
##따뜻
부들대
##퍼지
발코니
##민이
터트렸
광고비
yg
##충북
##태풍
##적극
잘라서
스모그
전속
그런다
벌집
겨자
첩자
##히들
##쉴
##히어로
편인
차분히
레기
방중
##기념회
윗분
흔들렸
##소지
걸핏
역경
아쉬워
수협
##어용
중앙아시아
흥국생명
고이
##화전
##기관장
부풀려
##깝
론스타
##한정
설설
가한
##알려
##표명
프락치
##용산
세계사
World
치적
##수역
폭삭
골프채
바이킹
중일
뚝배기
토박이
##따르
레코드
단통
장내
##상작
기다린
##져요
곡명
##지하
마는
##캠페인
퇴역
납세
153
청아
##포식
##따까리
##교차로
현시점
##나스
##도저
특채
Jtbc
##완의
외무성
##곡인
레인보우
심해질
속공
송가
시차
조서
논란거리
철책
김현
경진
##딧
떨어진다고
낸다고
##섰
효린
##새의
바닐라
오우
380
홍익표
##구서
##사업소
##고려
##간호사
윈터
##저하
##시술
##통증
미시
애틀랜타
걸까요
내딛
산업체
매니지먼트
##건과
로밍
리어
##지교
카다피
##차린다
일갈
##청문
해선
영상물
교통량
##테라
##똘마니
172
제시카
연고지
묘역
지으며
기축
05
군국주의
마스
이범호
##직과
##친의
증거물
인계
##을께
치워야
벌렸
종의
##호대
##naver
그림책
##찐따
목메
##나이스
예일대
홍성
송이
럭키
##총액
당겨
학장
은행장
##페이즈
##그런가
##패키지
##사니
비벼
141
아이오
되새기
발차기
##내밀
라스트
##문란
봇물
식기
고약
제쳐
듀엣
웃겨서
병합
##정수기
친형
나고야
일벌백계
##취득
사놓
편집장
움직여야
갱이
차태현
성행
원판
뭘까요
옵티머스
자고로
##문고
창작물
스파이크
벌어들인
미츠
##이루
##한쪽
##개이
조까
배설
버거
찢어진
##바쁘
기자재
##역이
151
JYP
쿠션
에이지
본적
갈증
##이재명
투영
성황리
시트콤
480
넥서스
장땡
만족감
펄펄
공급량
떠올렸
사달
143
유토피아
따스
안테나
##LTE
전시장
개죽음
피해액
불러온
홈구장
##회도
##터리
득달
스팸
대리운전
비오
김성수
스컬
소질
일전
가평군
##바래
휩쓸려
스톱
##mid
##사기꾼
숲길
템포
세아
##사세요
New
된지
##진술
와이어
##주세요
루키
##감찰
비빔밥
존댓말
##강판
잠겨
이용료
지편
콜레스테롤
부평구
~!
올라타
포대
김학
##보험의
##실제로
세운다
판가름
##인격
연발
185
##음직
유부남
어묵
천안문
##알아듣
갈림길
금형
##잣
시그널
GR
##고발자
나들목
성동구
인기투표
##라메
금상
EP
용자
상한선
##그날
긴박
확연
##변이
잃어버렸
##모터쇼
중간고사
패셔
하루속히
중심부
##특권
칼질
##렀
절세
어림
##부려
##죽여도
포주
증권가
놓칠
수서
습기
##는걸
##급자
##블레이드
##그리스
그르
매혹
친지
##그나마
131
운전석
##기친
집약
다진
##아네
냉장
기선
무모한
돼도
넓혔
각급
##보상금
칼춤
2600
봄날
준공식
디바
불능
##증명
텀블러
명당
##귀신
미래도
천억
##갈지
판매점
스타리그
창녕
IC
##타스
희롱
기념비
##승률
##방탄소년단
##냉
조선대
##’)
##우먼
청담동
깜놀
##끌어갈
이륙
자루
소극장
##추미애
##성별
##달성
멋져
##쿤
##내륙
버팀목
앙상블
발자국
고음
대못
거느리
교육장
정진석
이뤄냈
##피자
강인한
##걸요
하수구
##굶
강박
경제인
##황과
인민공화국
밀레
작업장
##어다가
##예산안
발제
##인사이드
연출가
즐긴다
SSM
내부자
##테이블
##모녀
단디
##~^
##산불
오락실
##슈퍼스타
불평불만
막말이
고마워요
##당일
반란군
##음성
앞머리
146
의총
목매
부딪치
##봉의
##없는
담론
미리미리
분화
라이너
리프
협연
그려졌
번트
서슴없이
들어맞
##여가
격투기
##소셜
궁궐
##코프
출연자
장어
적대시
각료
##명복
##만진
지킵시다
부서지
꼬인
##이브
라이센스
죽일려고
국민연금
소인배
줄까
모차르트
하명
소리야
##보미
마리나
스케이트
##가톨릭
##동무
무능력자
##주당
오지랍
##재고
##체결
##재건축
김남국
KOF
성패
알아본다
적립금
손연재
한탕
168
##소독
##증인
커플링
가격대
아사
갈려고
##예술인
고교생
한민
단시간
알자
##김포
흔쾌히
적진
레고
시정잡배
냉기
스프레이
험담
##창구
불합격
##리에
전매
희망퇴직
##젖
돌린다
고속철도
해전
컨설턴트
도시바
##특기
##포티
김준호
흥남
##비에
농후
합쳐도
버핏
단역
곤두세우
괴롭혀
1953
휴학
싸이월드
##장식
뒷바라지
도토리
차곡차곡
당리당략
##산지
영미
급행
조옷
KLPGA
열거
정치권력
##차이나
양지
물어봐라
오비
서정
마차
살아났
빗나가
체구
신항
씌워서
##베이스
CES
##레이트
##살포
초저
최고봉
매니
PO
대한축구협회
대전차
폐차
##아파서
##블의
아시나
그리움
식스
개풀
##예능
##방이
이근호
후한
##안감
스크래치
##날개
악독
흐려
쓴맛
애썼
크나큰
장가
국지
일으켜서
차떼기
타노스
기어코
##까리
행인
탄산
비상시국
홍성흔
##성폭행
전파자
##라더라
흡혈
연수원
리사
오즈
아낌없이
피똥
망자
천차만별
##111
조동아리
##테르
돌려야
배타
주호영
##총질
##불명
단돈
디플레이션
##브리핑
##연말
##기종
현빈
리오
##반영
##배분
호박씨
무궁무진
##아함
규율
라인하르트
##잡것
새겨져
##건설사
지하철역
지회
버틴
##매가
본청
##심장
서장훈
##김일성
중전
##갰
해바라기
드레
식약청
이동한
빼앗겼
##남도
##이니
거침없
화약
147
로망
올라도
##거대
멀티미디어
선택과
감염원
##직인
드렸
우천
긴밀히
아치
펜싱
관저
축산물
앞가림
요일
##야권
숨겨져
가다듬
울렸
서대문구
국무총리실
수와
클로
험악
피스
스택
진면목
매끄럽
##전면
이기주
도수
버스트
##어나
능하
##간지
지동원
##운명
##자루
키운다
##블럭
싱어
투철
내손
발도
##멘탈
벌칙
레이블
철부지
##뒷
마지못해
시시
##신다고
국제축구연맹
어데
김의
##문단
달기
##목포
부린
##자치단
기우
너구리
##놨으니
일몰
장신구
시사회
선주
동동
##각성
못나
##보고회
소말리아
현미
포병
PV
##자주
엇갈렸
자급
합방
재림
개와
리버스
주소지
조끼
FPS
##금고
얼라
한라산
##련지
##고민
밀려났
##동산
##주의보
염전
알파벳
##신기
단초
징집
##계발
더워
휩쓸리
##추행
##익대
##배수
취임사
##부천
궁굼
계엄군
갑툭튀
##씨도
추워
제패
##정과
설명도
임태훈
진자
이통
박정
##알리
##있는
BNK
진의
mb
##생존
슈퍼주니어
문파
##자책
##트릭
교통카드
끄집어내
금성
에메랄드
싹수
##최종
##분권
##꼽
##계통
푸하하하
##최소
바라기
미래형
픽업
거미줄
FDA
접촉자
배의
무인도
쉬웠
##수송
구심점
중령
클러치
##강과
##석도
UI
##민폐
##므
카르
경리
##관리자
##립식
쇼로
냉혹
떠받들
알짜
늘린다
속였
클리셰
##안산
##로웠
~~!!
계주
모빌
배때지
##대다수
##플래닛
##취한
노재
##밀리
물기
허비
느닷없이
##연과
##태우
쥐약
밧줄
미스트
미혼모
##ㆍ미
스쳐
정취
##국민카드
##시세
날씬
놔둬라
부적격
갈려
##재개
빌빌
알차
아둔
각별히
엄선
윗대
렌탈
우후죽순
나빴
코우
예뻐
애호가
적재
마오쩌둥
##고추
배관
짜내
국운
치우친
화천
이너
드워프
외과
콩나물
이질
창업주
군포시
갈라서
##독서
다이노스
##체증
밤샘
미룰
##점포
사교
경치
이춘재
섹션
##공익
홍길동
##췬
헤아리
학내
내야수
의약
##꼬리
북극
기해
##드린
프레이
##내각
SPC
작살나
작업실
##약정
##선포
##r
##과실
##메모리
고열
마이애미
오리지날
##태국
유턴
##㎥
남동구
##됌
자지
팀워크
디비전
밑천
역사책
어류
체리
고소장
##등록증
##패드
##반역자
불기소
망발
##춘장
홍천
심한데
##존경
구로구
철강업
아지트
가로세로
##!.
일임
아낄
##이력
##미사
동일시
이완구
도교
자켓
신분당선
근친
악담
다님
차립시다
튜브
내려지
##친절
데려왔
##자들
궤적
##밝혀
중한
살아난다
156
최면
##숙의
익힌
##동결
##소린
##쓰리
내리막길
반팔
##스킨
타사
격침
메아리
랠리
엄살
리바운드
##👍
선수촌
산속
기린
##조사의
충청남도
난색
스위트
불리우
글귀
문헌
신명
##편히
다발
##통보
역공
총선거
흉노
사이언스
850
악령
버라이어티
성행위
가져와서
튀어나와
난폭
양민
독립영화
면밀
무서우
스며들
라마
재력
##시책
약발
야쿠자
##평택
류중일
##엣
반민주
아닌감
리허설
스쿼드
봉이
중성
핵과
자잘
순국
모노
##UAE
자당
인과
MRI
핫바지
구멍가게
##캐리
말린
동갑내기
형광
지중해
##맘대로
혹여
158
알아채
판독
상근
보살
미공개
##기질
불구경
기울어진
엘리엇
Fate
##휴업
맴돌
유성구
부산은행
변절자
##서열
말짱
##풀리
표식
특공
병살타
초구
개패
장바구니
##측이
##내자
##동양
스테인리스
##셨으니
분탕
##산림
핸드볼
자랄
끌기
도망친
단도
##열사
##창이
AV
실바
밀려서
막중
치명상
가명
문예
##척결
갇히
어겼
괘씸
누님
누이
##진작
만희
섞이
거리낌
물길
개드립
베드
##다녀라
한술
##크루즈
독사
따돌림
시즈
##똑똑
에어백
팟캐스트
##다툼
##소수
가벼워
##아리랑
서병수
시름
청룡
##유승민
##는가요
될까봐
290
뇌경색
왈왈
극악무도
은평구
##였었
근속
브이
사행
김관진
온건
차베스
케미
거잖아
길가
권성동
##닉스
묶인
##해군
구위
걸어온
질소
해운업
##ml
내재
##마법사
대덕구
유라시아
응원단
측도
부원장
기울일
##정신과
니퍼트
천연기념물
나팔
네크로
역외
미국식
##브로드밴드
해직
특임
키워라
늑장
##죄자
신라면
관영
아산시
##메이트
##클리닉
##치르
밸브
시끄러워
##mg
꼭꼭
보여요
괴롭힌
추출물
새내기
아싸
##획단
기막힌
##숙
##합당
##변하
섬멸
부잣집
##된장
맛의
투정
##모시
##ㅠㅜ
##의상
난해
벡스코
관리인
##유명
던져서
메트로
##가해자
##모스
OB
##수산물
김여사
분권
##안전망
정략
##리거
시험장
쇼트
##송도
빨랐
충전기
찾아낸
라라
##텐트
로저스
##명절
달려오
럼프
##로와
회비
아까워서
가르쳐야
오냐오냐
원색
##살인범
유례
##승계
야산
안내문
##스타디움
##당인
##발달
##세용
급성
비닐하우스
다분히
##자위
현제
##얀
삿포로
##갈비
무비
가석방
##서적
##휴대폰
177
가보
##특강
위기관리
##클라우드
##해한다
##도중
##자유당
들추
JP
##군부
소풍
잡초
원순
NGO
..?
##론가
인스
둥근
장자
##노벨
오로라
##쇼크
관직
휴무
허언
코리
##주식회사
##진로
응시자
번화가
인신매매
커트
카미
##시설물
##미도
단호히
김상곤
##전기금
##파고
파우더
학술지
광고주
대한상의
##데일리
2700
부영
##땀
디젤차
##제제
##한데요
들렀
보톡스
##눈깔
##해져야
곰탕
##도쿄
떠들썩
##농어촌
완도
정박
중이
##좌익
불러다
가부장
지배자
결속
##마을금고
지구대
데뷔작
##소용
노폐물
접견
박살난
여아
##득실
수축
구울
평형
부추겨
드러낼
##충의
임관
##보이콧
##주전
황후
맡겨야
##보입니다
##순례
손꼽
물어본
부추
##깽이
인신
##슬램
2800
대수롭
천식
보호구역
##원료
영남일보
##꾸며
##퍼트
금값
이동식
할걸
이정표
펼쳐져
##119
신영
코피
명지
함수
##장학
ESS
군필
대한제국
경찰대
##저감
##유동
부끄럼
향해서
인덱스
##국보
##아트홀
낄낄
하산
구덩이
순종
##낙동강
오스카
경색
제너럴
##OS
져라
이마에
##무상급식
##동서
##빨개
##퀴야
투혼
잔금
##제보자
허니
사회학
##창피
##부럽
##양자
동국제강
산거
##싸지르
##인종
##라로
##연습장
##졸라
##반장
##$
##배터리
색소
##산이
정부군
##노스
친위대
윈드
김일
김동연
##메라
후계
##국금
쓰레기장
공수부대
##관광지
##다지만
자활
##쪄
유례없
횡설수설
꿰차
밀라노
##우와
인스턴트
도그
천만다행
산골
돌대
근원지
##특집
시켜도
대한체육회
진공
아스트
약칭
##산국
##㎝,
##씽
##임시
##베틀
모자른
둘러싸인
매끈
저명
##몬스터
때때로
탈루
##CD
박해
지명타자
권했
전보
##망상
홍보물
무법
동일본
회초리
##켓
##102
##체인지
복식
장흥
잡아들이
##태그
뼈아픈
154
강제성
##적한
반성문
피크
##밀의
##부두
##칭찬
빽빽
당적
깃든
출입금
지으
억장
기조연설
##느니라
##용서
안락
한림
시황
간암
착실히
DS
##꽉
푸념
형의
대잔치
사기죄
합해
##냨ㅋㅋ
유난
찾아냈
인도주의
##모여
420
조형
##쿠데타
##어야지요
정운찬
호시탐탐
##퇴근
##누스
원은
##양면
대장정
요점
감수성
##²(
단일팀
들려오
포문
씨알
퍼뜨려
##바쳐
##공무
슬라이딩
EPL
LV
토했
남겨진
서귀포
적다
뒤집어쓰
삽시
여간
##네이션
성악
스퀘어
엇갈린
쩝쩝쩝
순경
고용주
창사
져야지
##기동
지반
부대원
단신
재워
잡힌다
##발전기
조모
홍역
##POP
##굳이
설렘
완파
양방향
구조대
메커니즘
현란
그럴듯한
##고려대
대서특필
남중국해
##특산물
139
가르친
##상처
원청
겐지
둘레길
##선상
악귀
희비
일거
병든
현질
손짓
##망인
깔리
윌슨
##껴서
나트륨
##종사자
감리
잠든
##양이
타임스
주창
주황색
##답니까
##출전
볼땐
##행이
연료전지
더운데
##오케스트라
놀라움
##트린
붙잡혀
분전
##둬서
##주심
##지위
##계획안
로보
##똑같이
손아섭
##축전
채굴
유공
응수
김병준
##쫄
##군아
찌들
##야가
MG
##쪼가리
쉽사리
누린
##검찰청
##라잖아
에볼라
바비
기공식
##약서
뿜어내
##레인저
##LPGA
마르크스
##수자원
##밖엔
방사포
##,..
알맹이
생리대
놀란다
누진제
단지로
기하
오산시
행정소송
쌓였
유니콘
그만둬라
##험
지도력
##퇴직
아전
리먼
##대구시
깨물
시들
딸려
빼돌렸
조부
알바로
프레스
##생겨
잠금
송강호
대명
##박자
보살피
##인고
##%·
##연락
##별로
중생
크리에이터
1954
##조서
중범죄
든다고
허긴
가점
빈민
말싸움
관광버스
활약상
세계유산
스카프
결단력
##선관위
##아울렛
담판
지배력
매춘부
망한다는
단세포
아랫
포항시
##졋
##파트너
찔렀
##발악
이럴까
뺨치
흘릴
일컬
##')
밋밋
방명록
보냅시다
##스파이
잇속
순한
짜집기
대비책
낙원
##공갈
심근
지은이
주어졌
말없이
##성추행
조만
실외
모른다는
표밭
물어봐
##황금
장마철
채식
뻥긋
얼간이
##패딩
##맛있
밑그림
자카르타
야경
##쪽팔리
##돈다
운전사
훔쳤
대형주
주취
텔레포트
##겠다는
짤렸
##모였
여상규
몰염치
스포트라이트
방언
켜졌
마흔
글러브
여교사
따져서
##으련만
한낱
난리나
##앞두
패해
저널리즘
세자
잠그
페르소나
백이
##손님
가서도
##다닌다
##꺼져라
설악산
떨쳐
하다
동갑
올라야
이민호
심정은
흉물
##침대
늦춰
호모
중화민국
##인멸
하극상
괴인
순발력
정대협
들으니
##볼라고
##정가
##헌금
##논다
보육원
성산
프랑스와
##들어와서
가옥
##스페이스
##플래시
##지적
패스트푸드
점쳐
할려는
##회의장
날렵
어찌어찌
비거리
##고등학생
광란
면피
이월
환한
##막혀
##복량
##축내
약했
스탠다드
내려간다
##재판장
노면
기부자
비염
고춧가루
무인기
직격
선천
##스위스
빅토르
보여도
올린다고
##홀드
개포
##명분
쫄딱
둬라
음지
##레인지
놀랬
백기
##써요
love
고화질
자알
츤데레
난린데
##수에
##anchor
##소행
미뤘
국무회의
전무후무
다이렉트
One
로스터
모바일게임
시찰
풍족
##온나
깎이
##시멘트
##떨거지
고무줄
괴력
간사인
할려
엘리스
최정
부귀영화
##안양
칠푼이
##곁
거구
부가가치세
절절
연천
##그래픽
접했
옥외
물약
아처
환경미화원
##비엔날레
협소
윗사람
체육계
악보
황재균
스터디
싸돌아다니
##일히
DGB
가로수
흑역사
왕관
빈티지
아십니까
맨해튼
##메인
쉬울
처들
팩스
스바루
스몰
##치웠
##관도
1946
풀풀
##올릴
##라마
건도
올라올
##디자이너
지그
##성격
##고백
서커스
퇴직자
##사업장
작심
터득
하이트진로
조력
사복
정중
사라짐
자로
전국구
원생
걷어가
##들어간다
프란치스코
맞물리
조선총독부
##륙
##저지
팔린다
날아갈
혼전
위용
나와요
깨문
##튜브
중독자
향방
##성모병원
성북구
래미안
##이달
##줄지
천성
위구르
밀러
뭣하러
살려서
승수
##듦
살펴봤
제네바
항시
송두리
##\
봉착
경계선
화기
로저
##김정일
양심선언
##일명
모국
썰매
작성자
까자
식재
##겁나
520
세미
셧다운
아갈머리
찌그러
##벌기
등락
어려워질
##정식
물뽕
##스에
연약
힘찬
##트레인
개망나니
접어
가책
정상회의
국가관
##퀴들아
저래서
다산
##이곳
##감히
골반
##출동
##골퍼
##초월
##붙여
앤드
술값
인플레
셔터
##미쳐
낙수
평지
##웃긴
##감기
사사
제주항공
세모
##판도
박진영
가늘
##렌의
속칭
##크래프트
펀딩
야구팬
본디
진부
란스
소꿉친구
##영원
생산력
실직자
쫄깃
태형
방범
환각
진흙
사로잡힌
명부
끊긴
##부수
정돈
오션
##였음을
##조면
분분
위로금
들어간다고
##중고
##사제
##리언
##루스
딸린
##고집
##심보
##센타
##숭배
홍문종
##래는
##추의
고등교육
##종과
##짜르
##거던
아랫사람
##키워
만만찮
돌리지
##학관
공방전
용인시
저항력
극단주의
##슬림
파리바
물불
자족
밥벌이
된다며
교관
캔디
##블로
##인인
검단
더비
프레스센터
끼친다
##검정
베트콩
툭툭
히로시
나루토
벌어져
##역학
구매력
##이라
역겨워서
##뱃지
모인다
교직
패널로
신드롬
빛내
끌어올린
존치
##타나
##요정
다카키
포스팅
출당
됐으며
프로포폴
릴리
기댈
##샹
##시에
##유적
문창
리나
지웠
##논쟁
##윌
피로도
독서실
##냐면서
부와
##핸
##무늬
##냇
투지
두른
##매트
명대사
경쟁률
162
변비
책임져
오른다고
##스러워서
해로운
##수련
들러붙
무모
결격
##디아
쾌감
일군
조인성
만만세
##벌려
인트
얼리
##세액
비지니스
배심원
가천
저긴
##선대
##퓨
##우산
물린
KS
탐관오리
기지국
야한
##미티
공의
일구
##레이더
질감
##소이다
##로이드
출토
거북이
##사살
군정
반향
땡겨
인디언
##주점
강경파
##선임
경영인
안구
7500
지쳤
순응
특약
두배로
빙빙
##흠
##애자
쪽수
쿄코
배고픈
덕담
지점장
상식선
급진
붙여진
찾아올
베란다
##물타기
임대인
치뤄
통닭
감산
##석아
가칭
##꼴리
are
서사
##남한
하강
피한
149
아들놈
##타리
##스페셜
##근대
##하수
한샘
날벼락
유정
스레
앞장선
사직서
라벨
설움
수면제
벌어들이
##원아
보신탕
Me
따끔
올거
##동계
해부
현자
##굽
줘패
뛴다
##신자
여지없이
안달이
xxx
##조세
##따리
##제강
컵스
비하인드
뒤집기
##전라
기숙
감전
##시들
KDI
##중앙은행
##미필
통채
티아라
스플릿
##감동
맛나
떨어트리
게을리
통일교
처남
##비해
마수
##부시장
마도카
##처방
개회식
급조
뜬공
포워드
관악구
선거일
##의존도
뚫려
중공업
루카
##디지
##MW
신호위
단자
응대
외장
컨테이너선
무서운지
세종문화회관
암말
##하임
##공군
##구여
1949
##해집니다
##신체
급식비
##양국
개자
##투게더
특활
마하
청렴도
트리오
저스틴
특공대
졸리
팩션
최고령
이승훈
##과일
##의한
##침몰
페라리
시종
다이
##영이
자유형
아포
윤봉길
착실
교부
동방신기
자급자족
분수령
별관
안다면
블로거
김관용
your
레버
##윤미향
##교육부
규범
세일즈
##루이스
러셀
자평
어나더
수은
##벌금
아메리카노
DHC
##어로
신박
##타석
닥칠
##오른다
김상현
장제스
민도
##나니
실례
죄명
급수
타수
##리프트
유나
심산
##혀라
쏴도
##문정
##크로스
##안동
밀릴
익혀
짱구
십수
노역
이만저만
##니스트
돌아댕기
##장직
오송
바캉스
##성매매
시급히
oecd
카나
데이비스
취수
##신대
꼬여
##달도
풍속
디비
서민층
##㎿
추돌
급사
즈음에
오릭스
난간
슬라임
모라
단상
나미
막힐
##VR
매트리스
경정
##네임
아카
가래침
웃겼
잡범
##찜
부인의
도핑
그렇지만
구운
영월
해안가
##보완
연희
하순
3300
##빙의
간통죄
아드
찬바람
협주곡
오랫만
줄려고
커쇼
##중기
압살
당락
##타선
조의
서막
불붙
혜성
청호
##죄송
얼척
약초
볼티모어
감액
본드
묻어나
방어선
##IB
헛된
##시체
##놨더니
집중호우
그만둔
##졌으나
##기름
##법위
파해
스킵
친부
치장
설대
공명
##강아지
##나눠
##멀티
김형오
##숩
디딤돌
##선행
동태
일러스트레이터
야전
##선서
##**/
##섞
##리부
외지인
##라드
알아들
부러움
##컨트롤
무용수
##상관없
##이슬람
레온
공모주
에러
##획관
##나부랭이
니깐
굴비
끈질긴
심취
장안
##알파
사망률
빌게이츠
인천대
승부처
넘쳐난다
서예
430
방독면
경종
제단
다녀서
외자
폴아웃
##▷
드라
##난게
미네소타
노량진
##보여요
후안
팔짱
조수
초상
저널
우완
##우위
##돌이
미워도
##청정
히데요
##v
세관
경시
줄서기
##브레인
윤상현
##편의점
후려
전할
##무선
식견
##달래
낭패
눈멀
시기상조
이뤄지면
새터민
밤잠
임대차
##났으니
##다기
숙여
대당
##대하
##민은
오답
엿보
##넬
이국
2050
##국방부
##달린
남겨둔
주무관
##치과
애절
##주먹
아수라장
##데뷔
액자
양평군
무기력
흩어지
미정
경장
소지자
탄막
대성공
찾아간다
눈시울
##각오
투고
##존나
##분기점
유품
##사학
##항이
두개골
##악기
기자단
##렉스
차악
특훈
휩싸인
황실
일억
내리막
장성택
포근
리볼버
주리
##타인
##세계인
##아예
감춰
보고회
미소녀
부화뇌동
반바지
손해배상
스크롤
##상황실
유마
가정사
갑작스레
문도
##차나
원작자
솔저
##고위
위중
나뭇잎
##%~
##선거관리위원회
일궈
1919
##겉
홀로그램
영령
거제시
노장
장세
##프라임
##응방
서치
개짓
칵테일
##홈페이지
##아무것
##셍
도사
##쉼터
오역
##언론인
중과
##리니
우스운
##다야
라이트닝
인강
##견의
##자릿수
##뜯어먹
혼종
##이중
등산객
겸허히
##가비
1958
##펌
거룩
변칙
##회화
##영양
먹혔
죄의식
##테스
##만남
##썰
##짠
파라다이스
개작
들릴
풍습
크레
##마귀
만무
토토
어울림
시커먼
광부
개항
##욕먹
##펄
가용
거름
징병제
##원유
방벽
성군
기타리스트
빠져나간
1955
체인지업
자동변속기
##시오
##여권
##동일
언년
유심히
프라이드
아이슬란드
젓가락
바닷속
##충분
가로챈
##부턴가
합성어
Mnet
또렷
##그녀
조선사
까칠
##줄라고
상투
##스파
족쇄
잔고
제니
중국식
##양보
##보인다고
뒤돌
##출근
##캣
출구조사
##ETF
막혀서
##앵커
격분
##다더라
##막걸리
징병
롤러코스터
##참모총장
몰아세우
가린
##영감
##땐데
##태어나
가본
남원
##라이너
굶겨
##만난
들쑤시
##드론
동물보호
부정행위
풀백
##파동
##완성
삐뚤어진
나타낸다
프롤로그
##친다고
##문구
웃음거리
##업적
찜질방
고릴라
레즈
매개체
발렌타인
사심
비둘기
모기지
225
##주의식
##징계
몰려드
선인
찔려
##정은이
공신력
김웅
어스
은인
##강요
유분수
##타마
후장
편안히
##자임
점철
미오
##내외
##브로
##세도
시민운동
세브
모사
자주포
변화구
MMORPG
178
##날일
##항공기
일람
프레젠테이션
##떴
깨우
식생활
수칙
운하
모에
아티
##압수수색
##자매
##다라고
##경호
##소감
##발라
##즉시
이따
뒷좌석
사무장
밀린다
##심지어
##스피드
카카
옹진군
##나머지
외투
뉴스거리
야야
유혈
504
컷오프
가변
##석유공사
정근우
##@@
##ㄲ들이
내추럴
누리집
더부
비협조
방호
##본보
##아야지요
잘려
처자
살펴야
주루
##채워
스케이팅
초원
계실
무심코
##㎖
##영령
난생
유정복
끈기
##삼의
##으라면
겉보기
##올꺼
중사
##본능
##내보내
잔존
##공안
##DJ
토머스
매지
##기신
##도도
##질지
향유
##당초
핵전쟁
땅굴
##해상
상조
영결식
##취
수려
로키
철창
풀린다
미끄러지
진보당
긍지
자연인
살라
장식품
도망쳤
다우
갖춰진
##한디
농기계
##건드리
##이잔
##글씨
수사나
봉하
허정무
호우
덧붙이
허위사실유포
장대
제스처
구수
##녜
차차
정한다
##라네요
##한계
손꼽힌다
186
도둑년
앞세워서
당한다
##세난
살아난
##깟
스텔라
박석민
아인
초소
##이사회
##메탈
뒷목
뒷문
상실감
##피고인
영아
꾸렸
레이븐
##더미
##잘난
출범식
되짚
##둥이
김경문
제끼
한산
일차
리플
휘두른
##배경
능통
양립
ytn
불상사
잇따랐
지나간다
순기능
지져
##최소한
외도
명운
인륜
기초자치단체
가정교육
타르
부가가치
핸드백
어때요
간략
선관
##털기
제철소
##기세
스타킹
쓴다면
샤이니
##일시
##매도
부어
커튼
##결론
마네
음질
컨트롤러
정거장
메디컬
서청원
##매너
##바겐
다짜고짜
달려온
후광
이스탄불
##세미나
병무청
감정평가
대쉬
총량
치여
사출
##내장
6500
거덜
버드
감옥행
통관
루니
납세자
경도
##교가
필립스
페널티
유타
별루
##표창장
로스트
리터
롤링
독대
아수라
총구
##는단다
아가야
악세사리
370
##둑
##관행
##복음
김칫국
##농도
as
##막이
뜨거워
##신임
##발레단
문달
매립지
스윕
이럼
산더미
재화
공터
복음
##상고
콩고물
명만
세르비아
장동건
지껄여라
정수장
##라다
사요
ERA
##낙원
갈라진
##들인
##전투기
의기투합
##신종
전희경
엑셀
페이커
##빠빠
##휴일
##탯이
조사단
기념사업
##해와
꺼낼
짤린
바란
먹일
##노리
##건들
접해
새싹
그려진다
몰려와
##박도
생후
짤라야
약올리
##부대원
도망쳐
뒤진다
##SUV
섀도
##출석
철제
대려
##드로
##진에
##즙
고환
유명무실
##보강
##쓰이
##진연
지하실
##예원
감명
반주
고성군
##다던
##설사
##건축물
망라
단조
구해서
레파
##백성
아이즈
차입
##보이스
친족
##전인
##추락
##실사
뛰어내리
끌리
CM
구정
들어와도
프랑크푸르트
서양인
의경
##비싼
클리닉
201
##경상도
정론
바흐
##점인
코딱지
지어내
##배급
my
제갈
이체
##보리
채점
##발레
스피어
아파도
구세주
다수당
심증
제설
##여왕
낮잠
폭죽
망가져
수레
대립각
애타
##개도
도미노
자유투
##인제
##입금
##을려
당사국
##석기
##보직
내비치
블라우스
##우롱
카일
고장난
진형
내공
##뱀
훈련소
나빠서
테리
이맘때
장당
탕감
OP
##성급
채무자
노홍철
실격
##뽄
살펴봐야
##로켓
감점
##미디
최희섭
진행형
##창단
홀드
엄포
##인문
연좌제
##교직원
##놔두
옘병
틀려
않아
끌어올려
떼돈
만졌
##모터
수작질
가르시아
데려다가
아픈데
##'..
쏠려
워치
둥글
투표장
열렬히
대기실
세척
처한다
부천시
피워
은행원
정반
악연
##합성
쿼드
##얹
옐로
법망
꼬랑지
알량
##참으로
##SW
판별
사키
프렌즈
월화드라마
시시비비
##제주도
돌려놓
토사
합천
아니요
사마
##석사
뒤집어씌우
영양가
궁색
##사발
조부모
롯데카드
표리부동
풀뿌리
##LCD
##org
천년만년
##한다구
연꽃
뒤쳐지
##폐가
굴곡
들여놓
창시자
장녀
라이즈
##성폭력
##마스
물려줄
시간표
김태희
##흑의
빠져라
##한겨
불러라
비젼
남방
##한다거나
리믹스
신민
일률
스킨케어
육사
총통
영선
##엽
킹덤
##깽
##지갑
아기자기
##해서인지
##당내
테마주
고쳐라
뒤집히
들여온
퓨처스
다닌다고
태조
아자
상대국
내몰리
##섹스
빠트리
##날짜
획책
연가
지겨운
와이드
##과학고
폭군
##도피
##으루
스리랑카
##북미
유야무야
휘둘렀
낙폭
왔었
에디
##주범
탄두
##제하
금빛
더라
##누군가
매스
##자형
지지리
완전체
##원고
니들
기네스북
샌더스
##도시락
##확충
워드
물어볼
##병과
##미용
함안
살아간다
##방해죄
##리우스
포효
##시다
##부문장
##%?
연필
담양
윤미
강령
올레드
안전교육
##전염병
##대위
##야간
##KBO
##온갖
##네스
묘소
가락
감쌀
##실명
피나
하이패스
광양제철
돌아다닌
은어
책장
##노후
##러시
##로세
귀감
##리라는
전언
가져간다
##에이스
그만뒀
체포영장
##라던지
근심
##텍사스
덮친
도탄
##일지도
##해운대
##순수
경부선
##정수
##여신
페어리
반의
끝장내
몰라라
박항서
쓰러트리
##추위
조희연
받아들인다
북항
이용규
정신없이
생겼으니
비엔날레
채권자
가로지르
##드냐
##지킨
마십시오
##전법
##춘의
과학고
비대칭
##래야
돌아다닐
##자지
##잖여
노동법
소프라노
에어부산
##발린
번질
공포감
취약점
##곱
김주성
프린스
여적
GTA
변희재
기다림
슬로우
플레이버
의뢰인
##신세계
되돌아가
##매력
양악
##연예
기일
##참전
산탄총
열전
일단락
제리
만신창
레미콘
거스
불러왔
##윤회
경험담
연합회
##기보단
##니께
담뱃값
범람
네이처
삼성전기
##웃긴다
##멀리
크라이슬러
탈옥
고초
##문항
##한다던
난처
왔으나
가를
화자
##THAAD
악녀
호세
홈즈
할애비
페르시아
##히메
##찔
##적당히
당헌
회계사
여명
오븐
##놀이터
영조
양준혁
##담화
##껌
무협
고용부
양아
마타
##해야함
##먄
그기
닷새
##넥센
##유전자
빅리그
땅바닥
서늘
결핍
박제
콧물
난독
트인
##려고만
이직
##들어와
소회
##법관
##포대
##봣
그리운
히나
##전서
튕기
지어도
먹먹
응당
튜토리얼
##인겨
##늘어나
아우라
도하
수목드라마
##얌
위키백과
##갈의
##개시
##죄다
명장면
##법칙
스티
할만
환갑
동이
유로파
조르
##넓
마곡
병자호란
##머저리
점막
영악
##떳
값어치
흠뻑
돈지랄
기안
go
고분
사업단
##기술자
할께
끼우
##고래
##철저
보균자
껑충
##야된다
##적정
어려워진
웬일
연석회의
##두목
수업료
##필수
브레스
뿌리치
의문점
중입니다
##소울
굴레
자갈
##대세
각서
앤서니
##가난
##격기
##프라자
##명사
##문진
월가
경의선
되살아나
천인공노
##Ⅰ
##나빠
융통
딸아이
##소비세
갈라져
##자유민주주의
쳐들어오
폭소
OO
어는
##발목
시부모
1910
파운데이션
##싯
##준다는데
승천
##끝나
알람
급물살
공산품
최상
종아리
고려인
##세뇌
##평의
거여
러시아어
야유
불미
책략
박빙
산길
##맞음
##1980
마르코
단타
러너
아카네
탁상공론
Mk
##부르스
리부트
##치워라
울상
각색
##치즈
백마
휘젓
칠곡군
흠좀무
##챙
놓쳐
간병
웨인
추운데
엌ㅋㅋ
화염방사기
밀란
퇴물
1944
곁들여
한약
##짘ㅋㅋ
빛났
##교통사고
역관
##우습
내막
가정과
저세상
##1200
##감방
도감
##분자
차관보
##합계
야스쿠니
허황
방미
스탠더드
##인즈
##건담
My
계몽
##실용
##불나
자태
분별력
##기증
##지우
스토킹
##끈다
졸업장
정해서
토리
나와야지
##을시
씌운
하워드
재정난
##으네
변해야
수표
##진구
##맺
##파에
뚝뚝
재작년
##집사
별자리
낙지
입학식
임자
##돼왔
수문
원균
미신
##MS
경제난
한중일
##모진
코칭
##시모
임했
##컨데
위세
##숙박
##모름
말뚝
상한가
1959
기싸움
##소주
개종
김연
에필로그
##기려
##마사회
속박
성형수술
액상
##지면
본가
대구대
##태양
궁중
##해명
순양함
티벳
##후회
발사대
다가서
김종국
첫선
타이완
GB
##3500
국과수
하층민
기필코
##손상
##주둔
에쿠스
멜로
고혈
아닌데도
##출구
화단
팔릴
날아간
스펙트럼
##교도
##갤러
김기태
##조합원
낸다는
전리품
157
정의용
한달전
분풀이
##병상
변별력
동체
##풍력
195
##툰
삼척동자
##ㅔ
별게
갈라치기
예스
넘버원
##2001
무더운
##둠
##투기꾼
울궈먹
갈치
지렁이
##중부
계산기
마음고생
어린놈
##깡통
얼굴마담
##나옵니다
##실지
박성현
DTI
덜미
골격
쑥대
##박살
##쉴드
퍼센트
소린가
##리트
드루이드
##딸년
배째
약주
##당사
310
##괭이
영업시간
직권상정
우민
소개팅
캘리포니아주
등원
완충
##신청서
항암제
3600
감원
제우스
중환자실
##선동이
사네
고된
지영
##자국민
##버립시다
나자
컴뱃
##주부
방공
##핑이
데려와서
##평양
참의원
엄호
박연차
그리드
친선
윤기
역내
알찬
기네스
##피의자
지평
앙코르
움직인
##할배
스매시
오버랩
입기
트랜스
KO
##나비
##PGA
부담없이
다자
정준
이종범
무녀
최문순
터무니
파나소닉
등단
루터
2023
느껴야
오리진
##휴양림
##서초
##에라이
##당파
사학재단
아이덴티티
릴리스
##입지
##항로
163
중개업
들켰
##정답
정부안
배속
모로코
##소드
김정민
현저
##조이
##ㄲ들아
콜라겐
이주노
조용필
부호
조지아
기뻐했
원세훈
프린팅
깜냥
전사한
괴변
압박감
##밀착
오딘
##특인
##실버
##더이다
비통
헛발질
뒤져서
##리전
파보
##주관
##구상
노스
##로프
##기상
##네이트
##나대
준법
##숙여
개발제한구역
바보짓
##ㄴ들
##민영화
이겨서
##악법
비운
출루율
온기
미니언
쓰러질
필패
저학력
OCI
##가단
로동
변방
코웨이
강지환
##부양책
AFP
호무
선거관리위원회
##타율
세키
##떨어져
굴종
##좁
카구
매거진
그럴싸하
도넛
##고고
돈가스
##자면서
##나쁨
##퀴들이
오니
아차
운동가
강추
골몰
휴교
프로토타입
지성호
당최
##반사
뛰어났
에로
##경정
떠오를
공급자
##LA
체스
부대시설
##후예
창조적
##%)·
조질
##입사
##볼땐
협잡
갈랐
혜안
문비
##가도
명제
##움직이
관망
자작
##실종
정렬
##고장
비이성
흑사병
눈가
시프트
VOD
##야구장
##제철
레스터
##국사
##줄기
##주작
그치만
케리건
##궁리
쓰러진다
금기
영면
말조심
끄집
욕지거리
##약체
##여행사
##이낙연
애환
교문
금할
동시대
노상
김하늘
방도
불러들이
속력
요동치
찜찜
경례
가한다
야구단
광역자치단체
쫓겨난
극과
아베노
천심
칼자루
막자
다자녀
왕세자
매회
위드
노점
삼계탕
##질까봐
##광명
온다면
##아이디
깊숙히
칸막이
##내신
1956
우대금리
##♪
##옥션
중기청
드라이빙
리코
피살
자상
공부방
아실
##약물
난제
##수인
예정자
플래티넘
##사수
에스프레소
##지형
##안경
아파하
요상한
##라냐
##전범
찔끔
속물
따듯
##마마
김연경
##덩이
군장
##출판사
##고전
무서운가
BB
##개원
교구
서약
빤히
날까
##영제
뛰어가
명태
SH
기집
연호
##병합
##양파
내과
##갇
헐크
IPO
##다행
##정작
김제
천정배
시한폭탄
벌어먹
##치고
휩싸이
전립선
##제정
뒷골목
샴페인
거행
리우데자네이루
돌려라
##검열
기죽
진선미
##160
교신
연변
온누리
##외상
탈락자
주미
지난날
과부하
##화나
##레일
일맥상통
소피
월권
##중임
연민
줄다리기
불멸
문호
##쳐드
강관
옮겨졌
중앙선관위
공당
##KTX
끌려간
##폐업
##열받
##다섯
##아바타
교보생명
낙찰가
지켜본다
챙겨서
##탈퇴
간간이
이웃집
오신
정평
리디아
##터짐
삼바
##취지
##브레이크
174
자축
타로
##공격력
000
함구
밝기
##손보
자른
##뱉
투박
싼타페
##라임
##괴수
##어주
체르노빌
리턴
쳐가
고스
봉중근
멋져요
##태미
갱수
불러일으켰
골짜기
##난지
##지역구
클립
BGA
##취하
##필리핀
##창업자
안정세
짤막
대마초
하반신
산청
원활히
##무덤
##고정
색안경
##월경
이치로
거니
야무지
합한
##화랑
##긍정
홀몸
석좌
낮춰야
뽀뽀
꽃다발
##Y
명재권
되묻
##되게
##기자재
##가르치
##미개
신보
전편
컨셉트
##근육
개인기
두드러진다
부화
여중생
##영외
##지소
냉소
##윤의
유의미
곤욕
가실
해묵
들썩이
행정명령
##라고는
휘청
##늙은이
##표지
나왔으며
##ㄲ는
##경계
찌른다
오갈
시한부
병동
끝자락
라틴어
##니시
무현
시험대
한국개발연구원
침탈
##씨방
##무근
##커뮤니티
살펴본다
결정력
뭉쳤
##찌질
##교재
쾌유
유역
##새로
##린이
국난
가리킨다
가린다
##커버
##국세청
##으셨어요
##레이어
##해온
##소상
약해진
##야로
##일본인
##체대
각막
##돌아오
스리
##때로
바라본
만우절
##수시
정신대
둘레
자물쇠
##WHO
도르트문트
##욤
롯데시네마
지닌다
##NLL
##스터디
##후기
##보정
##망쳐
##그랜드
호스트
빙결
맥아더
착해
폐인
1952
하심
덕지덕지
##맞춰
발본색원
한문
피시방
##시공사
##그치
발칸
수기
권능
##1990
205
걸쳐서
찾아와서
미우
##로즈
202
편집자
포천시
##슬롯
착복
아쉬워서
얼티밋
##시향
베기
순교
황운하
결석
철조망
당연지사
##럼프
들판
부원
마초
원외
늘려라
##토와
김재철
##롸
얽히
예천군
##궤도
빙그레
생계비
보청기
##감자
##특사
특이점
##정복
암흑기
큐어
##140
##자급
육포
베끼
공공연히
렌트
섣부른
##도인
3200
버즈
##카스
PP
특근
##성태
익스프레스
통솔
##밸류
##나름
정곡
##플라스틱
굳혔
##수백
제비
부마
마더
총점
얼치기
##시켰으면
때려도
예단
전매특허
##본토
하모니
##등판
불꽃놀이
동률
컴퓨팅
저점
소상히
##성범죄
혈중
##을려나
지긋
##신항
##손석희
천정부지
제게
망설임
큰절
경찰차
##경영학
##역활
지아
##로고
나들이
척이
192
##지붕
면책
발갱이
공포심
##진데
##정제
##거제
ㅗㅗ
수임
대항마
이승우
부사
##FM
##{
떡국
캐슬
천체
비전문가
시노
진범
##파주
유창
##거리의
##몽이
부끄러울
드신
보디
##수욕장
말다
##360
##석부
##무라
유임
##스틱
##분담금
##하우
##장실
##휴게소
벗겨지
편찬
변변
##정착
해놨
나위
미백
실황
##기치
득실거리
깐다
발자취
KOTRA
##밝
##스와프
허리케인
##구력
##어진
182
상담원
짜여진
몰지각
##김어준
직항
협곡
##숨기
##리프
꽃잎
##%..
어플리케이션
왼팔
네이비
알린다
##래미안
땡기
능사
눈살
##펀딩
##피하
##경찰관
보여줌
##뱃
연막
##부끄러운
투니
전성시대
패배자
뉴스타파
얽매이
뉴시스
##이지의
##화로
즐거웠
트랜스포머
애국지사
롤러
재래식
##자니까
##런던
하수도
##절약
##초과
거릴
##니나
쫓아다니
반목
선풍
뻥뻥
아츠
필살
취합
장차관
##관한
목표물
아이피
눈속임
##진동
가꿔
아구창
##낼려고
고품격
##해놨
##터질
##미년
선형
183
##강하
열강
1951
미나미
그란
##배임
##운동권
수온
보온성
김혜수
봐왔
저술
산사람
##공룡
무디스
##독자
리액션
##함부로
노려볼
##중독자
볼려고
문젠데
신아
롬니
적십자
##동상
생매장
##버섯
어려워진다
##뢰
아즈
사야카
##지체
##보유국
노랗
휘날리
##부사장
##연타
아까우
##공휴일
스탠퍼드
◇"
쥐락펴락
##지껄이
침식
권위자
##소외
탑승객
##끔
기어들어가
박용택
달도
##복권
독차지
##로버
박형준
하노
노림수
강수
노안
떠다니
협공
##역세권
애프터
##라면서요
이윽고
##묶
##일반인
##철저히
##지터
군청
루리웹
##가족의
작아지
다녀간
재추진
권의
근린
알아봐
요하
720
활기찬
숨결
필터링
정중히
벼룩
흙탕물
전해져
추격전
속여서
통찰
말다툼
검정고시
##소프트웨어
간헐
##베드
망고
걸으며
##파이어
##승진
##시선
##유포
담아낸
##윈드
AA
탑승자
거수기
수난
##향서
갈릴
앞도
##삐리
무허가
##탈락
털려
인공강우
정독
수복
##ㅓ
임명장
무빙
줄여도
##시사
형수
##산소
사형수
##스테이
유우키
불면증
##모듈
자본가
뒤져도
##아닐
선언문
넘쳤
상추
##급수
머리털
##청소기
불지르
레이첼
##곳곳
용적
##지주회사
##탠
##브이
##밤중
##좋아하
필적
UFO
맞춘다
##다오
먹통
육안
##한계선
##나와라
밸류
감귤
메워
이이
##연간
심연
##바이저
군경
복수심
##경유
새대가리
어쩔래
##후진국
204
##하수인
오심
서문
##인삼
헤어졌
##부과
테이
마마
탄수화물
##오만
마지노선
##낸다는
황토
##난이
합의점
관광업
깔렸
야금야금
김현철
##베스
통감
##난이도
##동남아
징글
플래카드
요샌
인프라스트럭처
##천가
도면
서프라이즈
##트위터
미트
계양
프로그래머
런처
띄우기
##백조
신주
선양
##에라
발기
전처
갓길
토우
읍소
##미스터
시킨다고
대강
##품종
걸림
총동원령
##화장
뒷심
조잡
##과열
코빼기
##쌩
황태자
콜드
##자개
그래야지
레프트
배고픔
골리앗
##소송법
예선전
덮치
신과
단과
옐로우
##쌍용
중식
주술사
인부
섬진강
####
거시경제
제안서
##최저임금
라이터
##설계사
##라떼
호기
눈물겹
SKY
발화
##II
##조센
##부업
끄떡
수임료
조온
##개척
##위즈
##배워서
##향우회
이판국
얄짤없
##지율
펴냈
##터져서
164
야단
아쉬워하
악물
앞부분
##귀촌
##우터
It
##중재
배석
수재
안대
##젊은이
조시
설도
##380
잔업
달아오르
전지현
##우체국
##산하
기관포
리모컨
반덤핑
서천
순번
##초대
##영남
이주영
아첨
군용
동로
해인
표기법
##싱글
맹비난
노려보
도올
수출국
보배
담기
##%→
예루살렘
##다님
능멸
노영민
공멸
유병
논객
##탁의
##삥
선과
티격태격
##수색
부를
##폭풍
옮겨야
##뭉치
이만
비친
서글프
연마
농경지
부끄러워서
동대문구
##는데다가
##사이언스
사절
설계사
국조
변속
병폐
승낙
건장
가감
괴벨스
까딱
한다니까
##무식한
떨어뜨린
되팔
역이
격전지
##관중
##학당
꿈꿨
##북정
##대지진
어쩔려고
##동탄
자아낸다
##알아보
##임신
##거랑
시스
다녀갔
전류
전곡
현지인
##덕의
따라올
##선언문
프랑스인
재가
쓸어버려야
##생계
##증식
조롱거리
##인데다가
고덕
차우찬
##주라
##정액
환호성
한성
대군
캔버스
화근
반도
봉건
사무처
생동감
시몬
##구선
유휴
벌떡
국민감정
##정예
겁내
구데기
##관병
##이딴
광탈
치약
미워
종량제
열병식
##뜨거운
##금호
음압
고찰
##임이
##켈
##중처
원사
노을
##공립
목도
제복
노후화
##하하
군바리
원주시
빌릴
명재
태워서
법률안
피카츄
넓이
CU
김용민
빅터
나무라
안기부
지방채
깍아내리
##수목원
은평
차입금
##솜씨
핵폐기물
##구성원
갑부
갑판
청구서
디펜스
##「
끊겨
유치장
끌어오
##팩토리
##코리
패러
오합지졸
가져다주
곡성
도비
미스코리아
매운맛
점장
##을라나
지로
미행
조광래
##삭발
##해임
바코드
눈여겨볼
##변호인
##후면
세워졌
감사관
##다녀온
##맑
내려다
분만
정조준
실력파
청부
1957
파고
##수작
어치
TPP
돼버렸
해야겠네
토미
독살
##실행
그리스도
김성주
꼬였
김두한
첼로
오클랜드
##순서
기특
데로
256
응원가
무한정
사탕발림
##구름
즐겨라
해야겠다
약체
궁수
모유
다가갈
##느껴
##근본
꼬맹이
독기
167
벌점
##카트
소마
##요령
평촌
##정립
토악질
흉흉
둘러대
##편법
영달
##주니어
##대립
범퍼
삼양
고학년
시당
염치없
이한구
시험지
출하량
철벽
##시범
##해역
반대표
꿀꿀
##찿
##답변
##당가
증자
용수
안무가
##뿜
배설물
##마린
##처넣
쇠고랑
동색
해맑
##한편
유니버설
마침표
먹인
대학살
신공
##씸
공격기
##구석
삼자
털린
필수품
빵셔틀
##광신도
##인공
빚어진
##해인
챌린저
군무
혐오감
파나
후벼
순정
아껴서
얼렁뚱땅
반인륜
털어먹
##퀴는
##자란
쫒겨나
기울었
의견서
듀크
소임
매화
##우로
찍찍
항산
볼링
YS
##해낼
역삼동
이케아
양구
조디
소린지
돌림
##성시
독가스
##교양
마중
##사당
최루탄
그레
브레이커
갈대
자빠진
##모형
##750
##경마
쌀쌀
##한답니다
부러운
헤드폰
부정과
광폭
틀어지
큐레이터
방패막이
##제정신
##각이
건드린
행시
##는냐
##킴
연한
정은경
곱씹
허름
어부
System
무법자
카타
출점
직통
뽑혀
##전문대
달서구
재배치
백서
신정
하얀색
##애니메이션
베스
##쎈
##유보
줄인다
힘껏
540
##분란
등한시
투표지
빈손
변두리
교무실
##가져
##펌프
##남충
##개미
##어릴
기무
맡겨라
##렬
음대
원어
##방면
초장
프로스트
국방위원회
중무장
느껴집니다
기립
자타
##배제
##저지른
640
##코레
에드
말릴
##발짝
나선다는
NASA
응급처치
##인근
너클
레이지
김천시
재택근무
##터로
사이먼
##상주
설욕
자시
질량
플레임
203
뚜벅
극소
김보경
음악인
##ㅜㅠ
외유
닥친
돌아설
총학
##통업
소시지
##파이트
##조직법
##올려라
학연
호봉
맛봤
은둔
대림동
##학사
##노역
게리
##억제
이스
일련
어촌
짭짤
##제회
캄캄
비싼데
거둔다
잠기
159
펴냄
레드카
##갈통
##여행객
퍼시픽
##TEST
월화
상급자
##매립지
빨라서
웨폰
##입주
재수생
##폐수
##무도
##.;
어두워
##모토
##빌려
호락호락
##에어컨
##한전
해줘야지
단말
##보인
한센병
잘랐
##껍질
##레이터
번졌
다각화
뒈져
청양
숙취
##심상
##퉷
##교향악단
비아냥거리
##중개
몸체
실소
디펜
##나들목
부관
##법령
##민속
사유지
사라졌으면
깜빡
자화상
##하천
할라
##북대
읽힌다
쌤통
##올라서
따지기
치우쳐
대에
씹는
교과목
수행평가
다가와
시원시원
걸려야
##낙하산
석자
십자군
예언자
176
폐단
##구안
막아주
시뻘건
##다수
음해
신앙심
포니
프로덕션
반나절
전여옥
태화강
말려들
영양분
##혈
##개뿔
곧잘
수강료
광신
여든
파시스트
##장모
정주영
##개장
충무로
##죽창
##혹
문충
낭떠러지
깔깔
##혐이다
##빨대
금주
가장이
어버이날
이재웅
##이타
감췄
##사후
##전주
휴식기
##보태
##환영
플러그인
흠결
반자
##씨부리
##분해
##자존심
화환
홍정욱
이광수
쌍수
이승현
천당
인화
목장
이상득
넘어왔
##완용
가엾
##모인
##지킬
입학생
##복면
노아
##교부세
##산군
##름
호스
##단강
선적
안종범
상왕
김동현
##왜놈
통치자
##범인
가스공사
배합
##만일
도안
##인공지능
내레이션
##아이스
##말살
##오직
번다
샌디
법질서
피웠
방송법
##교단
메뚜기
한다더니
##주연
캐서린
##장년
더듬이
종단
승강기
성수
##머스
서둘러야
드라마틱
표준어
등심
파우
##PO
##바친
기함
오공
밤하늘
##😡
코미
##세미
서신
##멸망
##가액
해트
이기자
담주
##권고
할까봐
만듭니다
피파
베개
##고라도
ebs
밸리
##롯데월드
##연봉제
##함마
##세탁기
##신약
후판
##토끼
옹졸
귀여워
괄목
OPS
##증과
족쳐야
##스러운데
입영
##병역
##셀프
##싱가포르
##급과
##호랑
##선승
##힘드
##쨋
매듭
##편도
난임
##관리사
무너뜨린
##으셔야
Go
골인
캐디
산산조각
카메오
##저질
아이리스
베이직
##기념일
##f
런닝맨
루카스
좌충우돌
밝혀냈
감정가
##적십자사
조심히
##추억
계획안
##넘버
모씨
##하여간
늘어남
##화질
##고만
철철
수놓
해골바가지
품귀
갈길
##123
카운티
함부르크
##해보인다
뉴딜
월터
##회용
청소부
##갯
173
참작
운지
읽히
##체불
포르투
양동근
보우
##듭
##동굴
독촉
세워져
한국노총
김병현
비행장
##처지
소도
다방
##플렉스
김예령
문둥이
통념
##무중
악하
소나기
종놈
한풀
##전직
광화
앉혔
##왕후
백선엽
베이커리
말끔히
##그려
우스갯소리
PVP
##톰
##주립
거려
##철새
시온
##말려
##산도
걸려들
##문사
##던스
천재지변
나스닥
묘미
##경매
이뤄지기
바쿠
한스
##플레이스
플레
절상
장차
면허증
##바를
상행
목조
언저리
유부녀
특산품
##ㆍ군
##은대
##인건비
위트
왔다갔다
최상위권
격한
오아시스
저층
야구부
##지롱
##활약
채워야
##IS
권은희
이대
##수십
극좌파
피싱
정치학
병아리
이방인
##도면
발품
들어감
교보문고
경주시
##국행
해먹
자작곡
롯데제과
신동
대경
더더
##세자
부연
의로운
난세
##교부금
솔라
1947
띄운
승합차
강모
##라요
?..
##정령
덤벼
##경량
##베랑
##㎏)
개법
##버릴라
고속철
나로호
##밀양
오감
##시미
빈대
##열도
지못미
회오리
FT
평론
트랜스젠더
진이
해녀
##장만
페스
##뎈ㅋㅋ
##유투
##고양
승차감
##순환도로
##배신
문제아
헤아릴
요것
유모
수작업
나레이션
극우파
바뀜
조니
방종
돌려보냈
자금력
세가
희화
일면
큰손
표주
벌크선
수석대표
##MVP
##천치
이빠이
일언반구
##위상
부심
그러게
##부네
병종
화기애애
##였음에도
모택동
고베
아참
놀래
##주니
##다거나
침체기
나왔으니
##라선
설현
계산법
두둑
벅차
근현
##퀘스트
##리라고
끌어내릴
풀무원
##는개
답장
하행
##450
갈팡질팡
나뭇가지
두드러진
##뭉쳐
올까
조식
네이마르
인벤토리
##발식
귀싸대기
곰곰히
##이때
내비
##본다는
아랫도리
##들여라
가르친다
개사
프로레슬링
보험업
현찰
장학사
다지기
고난도
##인시
010
코너킥
개거
심장병
199
배기량
##영진
##래스터
든다는
##우라
감은
졸부
구명
##던전
무림
심사숙고
자판
세정
##는갑다
##원내대표
치러질
카즈
##대서
##영주
##욕구
우마
권세
##들어왔
##전날
재무제표
##사이클
왕정
##능가
난자
심고
##경찰의
##부착
바바리
찌푸리
##도르
GO
푸른색
##막장
명가
왕과
##간판
##다죠
##신앙
##망해라
Team
##구실
일사천리
클라라
##입자
알아차리
##복식
##병원장
호크
구기
종부
부산물
마스터플랜
##이성
##입구
##분산
급소
##쿄
암석
기합
억측
##단순히
##벗어나
스러운
##엥
허풍
피우진
광풍
깜찍
씨스타
##골통
주의보
간호조무사
금새
##소도
단정짓
대각선
데스노트
저스티스
금화
##•
수감자
성년
루즈
광역버스
##박살내
##잡혀
안절부절
##폭포
사시미
##후원
##해공
부정수
놀러갔
미싱
##피로
##비근
장막
##미인
530
##동조
##종편
앤더슨
진군
##봉지
서재
수탁
##건디
피부색
행자부
##막스
SSD
##점점
금괴
천왕
선봉장
쓰다듬
기흥
##쟌
사천왕
가왕
##면부
169
철거민
시라
be
de
편애
틀림없이
전병헌
낙인찍
부양책
##이쿠
##소와
##내릴
##PB
##문정부
영산
봉창
ex
올라와서
GSL
연구회
##역도
쌈박질
양다리
야만인
잡아냈
##프라이즈
ISA
각자도생
##개야
승질
187
띄웠
원정대
##AP
테일
빛깔
프랭클린
유소연
폐광
경전
그려지
감속
동의서
##이만희
져서
##자빠
##반미
##KDI
패트릭
광주은행
객원
##삽니다
미지급
도라에몽
보살펴
트램
##지도층
심복
피에르
감봉
간교
활동비
폴크스
신시내티
##촉
시작점
부익부
생쥐
##솔로
존엄성
가만이
기어가
##관심없
##으셔서
보온
회의장
동맥
초호
널린
장동민
타오르
##현행
바티칸
이건가
탈것
##105
내세워서
##따른
##셉
##EBS
이수근
친딸
##다가오
##보낸다
대관
##야쿠르트
크리스토퍼
아시아인
선동가
##유틸리티
##치안
풀려났
드러눕
##실정
아오이
이광재
물감
보이지
테이크
##포즈
매서운
사이보그
충칭
컴플렉스
166
도로변
슈터
미담
##가르
못내
##인건
오차
##언젠가
요코
이룬
전정
실랑이
예사
물방울
빌렸
##기득권
쏟아진다
##뭍
##DMZ
윈스턴
##저놈
공공요금
##누적
##교안
##북스
레인저스
순대
남한산성
일출
브레
각계각층
친수
##착용
NL
맹글
증차
##남동
윤종신
##실업자
연령층
엠블럼
투항
번성
##판다
원산
갑상선
권양숙
##영혼
산유국
##응용
까네
삼전
대타협
##요새
##루프
##클린
분홍
188
교보
독극물
##한수
청량
그럴듯하게
##려구요
전년도
신도가
팻말
매점매석
스마일
토이
비빌
숙였
184
매달린
마두로
##서해
즐긴
##지지층
나타낼
##반값
걸즈
바이올리니스트
gdp
##의결
가야금
보약
후세인
착시
건너뛰
파헤
중의원
예정지
뱅가드
공작원
신동엽
유년
거위
우주인
##부의장
##웨이브
얘긴
부엉
##DS
들어간다는
트랙터
톰슨
##´,
호텔신라
강화군
스케치
대용
스켈레톤
산체스
옮겨라
171
식음료
동강
다뤄야
민병대
##기체
##종금
산은
스트라이프
##넝
어긋난
##제자
헤헤
추카
취한다
선취점
##유해
온종일
##진흥회
##한지라
묵비
##이외
급습
##완벽
봐준
##충동
빠가사리
기러기
라멘
##카라
형인
쥐잡
##트릴
얼렁
겨우겨우
##빵이
찾아갈
방아쇠
종국
161
라면서
난데없이
세라믹
##이날
배기가스
키드
아쉬워했
아폴로
두꺼워
##으랴
미천
헛되
##임대료
##세무
깊숙
##껴야
##들임
##야대
##주스
##팬티
경실련
##씨티
치뤘
무서워요
##재수없
##체고
씁니다
복병
촉매
지퍼
원더걸스
망원경
순삭
##아이디어
가이아
한혜진
##뚫
줄타기
민법
##오니
뒹굴
인증서
모피
가브리엘
왔으니
흘린다
##경위
선우
권투
박희태
세간
##퐁
왕궁
이승철
유즈
만물
김관영
제청
무리뉴
##운지
##농약
##DTI
베푸
##직후
##곤의
##열기
다이어리
꺼졌
다나카
##치곤
##체중
##침의
##아크
지크
##동당
##TK
엘시티
스타크
##전할
덤벼들
##서에
##충과
##전해
부적응
구명조끼
두들기
달구
##국무
##들려
##며칠
토론자
댄서
요충지
섭씨
##수사관
철구
지천
##능력자
민박
담아냈
##착하
##모어
##억장
무찌르
성인군자
송정
카렌
##유일
기어들
돌아볼
분당선
##증언
베가
##한진
이상화
원유철
사들이
##간이
조수석
밀어내기
수의사
198
락스
##대구경북
얼룩진
미납
##점거
방재
빨라졌
##입이
지나칠
연다고
##이스라엘
관하
EV
##으래
순국선열
##차세대
고어
##성찰
제언
브라우저
치러진다
씁시다
##곳간
##사무총장
못난이
##++
도독
##간데
해택
##독점
##종식
생방
달아난
##우회
이경규
카이사르
스탠딩
##쥴
세차
열량
빨강이
##돼냐
##무를
맹독
##몰지
박종훈
박보검
선제공격
중대장
파안대소
##평화통일
판다고
공과금
성문
데니스
전현무
##악인
##청도
초급
비견
미카
1942
코스모스
파쇄
이스트
##병실
##이대로
라비
김효주
테임즈
##중앙일보
##텃밭
전기동
꺼진
집합체
중퇴
살린다
##발령
모스
##선지
Day
분기점
약해졌
##문도
재야
여중
손맛
사우
진통제
케이지
##먹거리
일방통행
뒤쫓
교외
골잡이
순사
걸기
상관도
물줄기
##따름
##드릴게요
빙하
##친문
슬로
판시
스미
빈익빈
##취도
하교
미야자키
##쉬운
범벅
우도
미네르바
한신
의연
자장면
저속
억누르
명수
변제
상암동
세슘
귀향
귀여움
##본다면
##탈세
세일러
최민희
##본드
스왑
수포
어눌
기본요금
괴로운
##튀기
##SM
##로페이
그친다
자크
서스펜션
##는다니
10000
원샷
어줍잖
이끌려
알펜시아
##미소
##테니스
##피겨
과도기
수프
##연세대
포메이션
##무릎
깐깐
##국채
클레이
##대첩
용맹
##DC
칙칙
사기질
붕어빵
##전후
누더기
##유권자
##모건
가교
##거르
선착장
##AFC
쑥쑥
자조
금색
비겼
##어이
##도가
##으믄
가가
##남방
강적
정벌
먹였
찌른
##포수
목포시
파수
##젠더
개그우먼
추장
불가리아
##어째
주제넘
연산군
##쏠
외연
환절기
볼리비아
변덕
시덥
##이재용
##궤
이따금
아테나
##늄
늘상
북상
지킴이
문맹
갑론을박
탐내
제원
가속도
잡아떼
KAI
##빈도
★★
##착각
구박
폴드
방폐
격식
되물
야쿠르트
지코
유유히
간악
##리원
뿌릴
##유예
건드
통역사
##홈피
이르지
아인슈타인
초입
##고수
직역
나빠질
도자
식초
로만
롯데케미칼
##페이스북
##WSJ
수라
카오루
참모총장
까맣
주네
울창
랜서
##시녀
##동작
서대문
##렌터카
총각
개중
구급대
440
등불
##키도
한가득
##소중
레이너
배너
전염성
##결합
겹쳐서
에콰도르
깃들
##대리점
고척
전목사
##개설
살펴본
##띄
서희
스킨십
사령
산업재
##106
견적
스릴
##웜
##스메
##하이브리드
키라
##쌕
구식
##창인
개인사
##변신
원투
능구렁이
생포
##조종
놀리지
엇박자
##갈이
##채소
경남기업
눌러서
##켐
흥겨운
베이지
지낸다
목전
탈영
황하나
찰떡
푸대접
내려다보
커리
##양대
##그간
단비
수액
언사
##삽질
##천에
대교
아녔
석연
코걸이
사단장
리리
##들어야
큰일나
효과음
내놔야
ㅊㅊ
다각도
끽소리
대통령령
소피아
터트린
억양
구이
배달원
최나연
감사히
TBS
함평
유일무이
수수방관
박박
토가
바닥나
민요
이창호
##블랙리스트
요지경
정성껏
저당
각목
##진해
총감독
##비에스
##거용
빗자루
스튜어트
차면
##서방
##주마
LIVE
좌장
슬리퍼
김유정
스틸러스
핵연료
린치
##석과
대견
##노가
엉성
교도관
##박혀서
##나면
뒷담화
명암
up
고득점
사상의
##주둥아리
요거
팔뚝
종이컵
##레어
##툽
들개
회당
검소
템플
뺏어가
이니셜
이병철
노크
##퍼스트
필지
굴릴
머스크
너비
##조도
스폰지
단아
한가위
뒤따르
참기름
생년월일
구정물
##티나
##대대로
버니
성완종
##환경운동연합
##고르
베이비붐
##게이지
##멕시코
채비
순도
최성해
성상
잊혀진
플레어
쥐죽
##크리
토네이도
푸조
홀딱
절하
지드래곤
인피니트
##공표
##껀가
##스도
##북송
우지
엇비슷
팩토리
노땅
##의정부
가중치
외식업
행해
프라이빗
공손
에그
전우
뛰어놀
##열정
미연
임종
가려진
모신
언변
##록지
##회동
한화건설
##치만
이중국
##물러나
##떨린다
##사직
##탐사
다이슨
메르
##랑가
브라더스
##병도
##돼온
##조류
넥스트
노하
난쟁이
얘긴데
##립스
더러움
##변수
타마
##연관
밀려난
지켜줘야
##평창동
##살상
##?~~
내구력
저버린
촌스럽
##김무성
불임
##페스
붐비
##종결
특허청
똥내
##반고
떠나가
실비
늦출
최고가
스테이션
하지메
죽도
게으른
얻어터지
##다로
민수
자전
떠올라
pd
안내판
##덜덜
##한다던데
강직
크로스오버
##마요
##써야지
평시
하이힐
##기술력
금천구
귀재
색소폰
익사
민트
익스트림
뇌출혈
어이구
코파
전모
##뎃
일평균
거포
주거비
평평
겁주
주접떨
폭사
##강령
##기념사업
꿀리
##320
##을지언정
🐕🐦
산수
미나
의장단
순익
정크
NFC
임명권자
니코니코
하늘색
토모
피오
골칫거리
##유신
테너
##거야
임신부
붕대
결기
##간다면
터져도
부서진
메기
##단말기
차치
스크랩
신학기
용광로
일직선
다닥다닥
오마주
##선출
정우택
포구
군요
헤아려
메이크
부비
##태양의
AD
케이트
노이
512
##하여튼
구한다
애쉬
뛰어올랐
루팡
총성
스즈
약식
곤경
##식별
메스
##불량자
##중국적
브리티시
였으면
##했으므로
##맞이
3800
기판
두통
##생과
##영회
투수진
매해
슬금슬금
에너지원
유념
양식장
프리즘
##표절
하정우
색의
차감
사법연수원
돈돈
영사관
##가죽
##엔드
허무맹랑
##신공
키움증권
핸들링
##다도
##브라더스
동백
대참사
저촉
아카이브
알려줘
##앞서
박소연
##는단
##관상
거듭났
얼씬
질투심
##다크
##젤리
##공판
알래스카
##세관
##릭스
##이상한
후일담
메츠
환대
공전
꿍꿍이
요시
##대별
작업자
이호준
##춰
##통영
가의
공격진
##씁니다
##새리
블러
파괴자
비로
칼리
##룻
##이카
두텁
브론즈
거로
티브이
로딩
섹터
##수량
녹이
##천과
##려고요
460
괘변
자야
##채납
나지완
##이요
부울
##건조
##질주
근무지
타이트
집념
타우
##고쳐
명기
테크놀로지
변절
##포도
패티
혈전
드가
영일
케리
##어인
오냐
연을
중심축
개운
레버리지
##송라이터
저곳
스타팅
셰익스피어
샤이
마미
번들
##휴양
득점력
무한대
##계절
문무
구슬땀
560
##신설
##헨
데크
보호법
##달하
우경화
##연녀
옥시
파나마
빅딜
황색
##정시
박주선
말미암
##프린터
적외선
##LNG
논현동
통조림
##소신
무전기
##호인
패왕
세태
어드밴스
##어떠
바래요
격앙
장원준
##자발
거물급
##팰리스
알츠하이머
파스텔
뿌려서
웬수
##동참
##현역
##똑
비문
비범
##올라오
신안군
바비큐
##끓
윤성환
##뚝
진땀
주먹구구식
하비
##사라지
앵글
##을란다
##구대
##탯을
로드리게스
애나
우성
##생각나
한솔
차이나타운
196
개회
193
내팽개치
타미
##가만
쏠렸
##텐가
##보라
전지전능
LCC
##기록물
##뜬
올겨울
##국비
##통한다
##무너지
##제명
##우방
커트라인
##사죄
신봉자
파렴치범
구국
BL
리빌
여시
만을
뱃살
수도원
##차립시다
슈가
##허리
김진
준게
##선두
매실
배영수
장황
##일행
셰일가스
기출문제
##관리원
문무일
담배꽁초
광속
최민수
##보수당
들여와
성황
연회비
1941
보였으며
임야
명예퇴직
광동
구렁텅이
홍보가
다수결
##누설
녹색당
다닌다는
어록
호두
됐었
##두껍
불쏘시개
##발주자
백해무익
너야
까진
똥값
공시가
189
##강수
이종욱
##머들
알카에다
대상지
##무지
All
제이크
이정재
경산시
배리어
뿌리깊
썰렁
##장님
콩고
붙인다
##할당
##진핑
470
민가
##깁
모서리
생겨도
##연료전지
결의문
동화책
##학문
##티코
##문학관
메구미
999
퓨리
##산다는
홍진호
상주시
##주최
##트리플
XXX
식히
박람
외벌
국회의사당
나두
쏴라
##개긴
프라이버시
위즈
퍼플
수세
##변태
카즈야
러프
##2030
##손자
크라
##신사
곶감
카이저
크리스티
주눅
명치
##스러
후송
래리
필러
헐리우드
##할게
거지꼴
차두리
##손잡
되질
깨우치
상명하복
##당분간
창이
풋풋
##DNA
함재기
건대
##들여서
##1998
문패
과메기
전교생
지상군
##㎜,
뽑아냈
약값
마담
향응
##인임
##탈해
아웃렛
##진료소
##굳
둥둥
청국장
역류
피해갈
퇴화
##해지지
면서
배팅
##국산
##ㆍ여
출정식
##성금
검도
##촉구
EZ
부릅뜨
##330
##룹
대할
장작
납시
버텨야
때린다
주검
뒤처지
중형차
##🐦
질기
##역세
울고불
알려줘야
##지고
##표창
1943
작품상
##치기
미역
##젯
후원회
들르
팰리스
분말
물렸
토의
혈서
오디
조신
##이무
##운항
##7500
숨겨둔
어영부영
##월호
가려져
페스트
##김제동
값비싼
##확실히
##계기
tk
강냉이
박정권
터미네이터
수매
쇼나
건드릴
지원군
##여지
안도
버러
##기수
##장자연
##방구
우유부단
##드레
을지로
재충전
막다른
개양
맹수
문제집
나래
소방대원
##라고도
예지
원탑
##살아가
지당
이남
들일
어음
##인도네시아
##작곡
출연금
##부흥
연회
##임금제
경중
어조
스냅
풀려난
컬럼비아
카인
##줬으니
전치
##향이
보지
떠올려
사서
쏟아진
수속
명퇴
##압수
위계
라크
##무로
나진
꾸린
##미녀
##수많
##지킴이
배급사
돌아다녀
##여유
성악가
다망
##반면
##결재
산란
데스티니
로션
조선일
소공동
금지법
시민군
연금술사
알라딘
##혹은
중장비
휴게실
후궁
바스
이병규
객기
##냉장고
신수
피서객
##박멸
월별
혼탁
내림
박영수
로이드
##깨지
연평
산후
석유공사
분투
금융업
##몰라서
힘쓸
##박지원
내어주
연줄
##토픽
##불꽃
유고
랜턴
민방위
별미
##돌렸
##바꿔서
어물쩡
원죄
##전기차
퉤퉤퉤
##관리비
자위권
##내시경
##슬로
유태인
안타까웠
충청북도
인영
하나다
##상위
핏대
사채업자
친동생
##공백
이로운
##거들
##영분
여제
##양극
특파원
In
파고드
##지오
상암
##레이저
##스타즈
유찰
먹구름
겸허
##파스
패럴림픽
##pc
##특공대
안전벨트
##몰래
걸릴까
##마늘
우짤
##해설
##트렌드
경증
은퇴자
대영
##재밌
내보낼
내편이
##브릿지
##척도
치달
떠받드
체인점
베라
가까울
##식스
##캐스트
##만부
눈도장
옳바른
울면
그리구
왕권
서행
진풍경
연례
트릴
덜컥
사격장
##스트로
뭇매
##부심
##지산
##웬
베니스
아성
유카
허가제
시킬려고
뒤바뀌
##못한다
##매니아
지참
치룰
##수배
##단인
##종양
백합
불감증
4050
함몰
##린을
비비드
불러다가
냉정히
##점령
##벤트
벽지
묶음
##공수
후발
부동산업
##여친
기폭제
휘청거리
##대부
dna
##정돈
##발사체
빌리지
##공법
최빈국
홍차
감싼
연주가
가운
기말고사
노욕
MK
일석
##간탄
다이얼
준중
부조
미도리
고소미
근교
물러설
##유전
선서
정읍
대사도
해물
디럭스
바쁠
면책특권
##솜
동년
찾아봐도
주실
##레이드
용석
##와요
채워서
노선도
더샵
##총국
소강
건실
마지
정치범
암초
중요시
스키니
##진분
욕함
새긴
말끝
일가견
##나락
##룽
소기업
독학
보내왔
##박살나
##국시
쓸까
##각마
##킬러
##국밥
테헤란
하동군
감시자
수저
뒷산
온수
심술
##피아노
언론계
##전진단
나폴리
TP
처다보
핵융합
전패
북침
복습
펜듈럼
##밝혀라
겸한
##앰
##시나리오
사로
정미경
##블로그
맛깔
##포천
독신
하이드
경남대
##랍니까
##을가
##나와야
신랄
이승환
##프렌즈
##비타민
##잔액
##모가
##일대
헛점
이기주의자
촉박
##수퍼
세상사
체납자
재방송
##취향
흥정
##해변
950
블루베리
홍석천
짤릴
치어리더
빚어졌
##체질
귀금속
홧병
##이식
##고하
무함마드
##취임
한화케미칼
로프
옷장
꾸밀
아이비
감춘
휩싸여
금호산업
간통
뒤집혔
##시실
아킬레스건
##4500
##아픔
기관사
교학사
벌여왔
##세수
##다승
올리버
때려죽이
밀레니엄
용적률
##소환제
카를
공백기
##때린
결승선
파이트
몰려서
##호랑이
뒷거래
##창문
홍익
브리
유카리
##아부지
##흡수
중앙지
칼국수
##맹세
농경
합격률
호중
줄리엣
선공
##로맨스
스텐
##반지
222
##북구
ISO
그쵸
일주
208
이용섭
동두천시
##재선
##시간대
보수파
##발주
석궁
비쌌
통계학
##크레인
서두
청기
##샌
불치병
개전
소금물
통령
의례
질식
익혔
백두대간
혈투
동봉
##연극제
##구별
##수자
똥차
무진장
버지니아
기념사
장원삼
##훌륭
##실체
원위치
내연
징검다리
조직폭력배
##통신부
양의지
수줍
##행시
황혼
굿판
ㅜㅠ
야식
##터키
##여주
조미료
노리개
북남
지배했
##베이비
여소
화도
국방위
깡그리
티몬
##해봐야
##시험장
미유키
##문제지
##기판
영해
거금
사고나
##홍의
공돌이
##외파
스네이크
히카루
비좁
##번개
블루스
주옥
##요가
##즐기
행정학
##💙
튀니지
도농
결례
##거울
김정훈
이군
##래서
##는대도
무직
써니
특별상
##리더십
착용감
퍼져서
홈피
##일리
##해진다는
신간
##대야
쫓겨
##미트
마셔야
181
축전
고은
결정지
일신
캐머런
소지섭
드려야
드러워
게르만
##비록
신경질
##손녀
까페
##래미
은신처
선결
탁자
동인지
옮긴다
발칵
트로이
ok
강연회
어획량
리오넬
조진
담가
마커
뜨끔
##생일
##시일
##여력
##마감
유증
미니게임
##셔츠
질렸
세무서
형과
교무
감흥
##사용료
머리띠
##사카
##벨벳
##플라
##맹박
신칸센
##SOC
지피
##지성
EMP
곤두박질
##드럽
함포
휘감
오노
민통
##사막
점원
전자레인지
너덜너덜
세무사
##경원
상징물
##금은
친자
자구책
더없이
내홍
숫가락
꿋꿋이
안겨준
이사로
적재적소
환승역
##발부
끼쳐
풀칠
안전망
고체
정동
죠죠
로페즈
고모부
천상
홀딩
동승
고창
##미르
그럴싸한
목수
한상
전조
쏟아질
대야
##챗
경춘선
##대놓
강매
경총
매콤
아무짝
기나긴
대유행
##출원
수완
##보름
연유
##휴먼
##역기
피어나
##응급
명탐정
머문
법전
더러우
그람
179
고택
험하
국인
##도둑놈
외쳐라
지명자
타순
돈다
초읽기
괴로움
##우편
방만
황소
회복력
##걸린다
##버나
##반전
막심
##오랜
Top
##노령
##사절단
관급
창호
1936
##운하
위닝
추계
백은
대보
지원서
리빙
ESPN
##리다
왕건
적조
김종필
초속
자필
##ㆍ중
산만
발췌
떠든
아름다워
ㅡㅡㅋ
리키
쓸려
공성전
개선책
매트릭스
크로우
변치
지프
배출권
##종전
입방정
카톨릭
음력
댈러스
면했
청신호
쇼맨
##장녀
부딪혔
깝깝
필로폰
가호
##카제
김민
재빠르
##납품
사납
대환영
##라오
봄의
코스타리카
품앗이
브라운관
준석
택할
논지
명문화
##자던
정찰기
잽싸
개코
드니
인서
폭투
의식주
고고학
QM
##현충원
김광석
209
에디터
##아세안
대놓고
중국집
밀어준
이방원
타나
비할
주동
기대주
##작물
서빙
대관령
##롤러
녹아들
##아만
##날려
유조선
##재판부
선친
##힐스
@@
전관
##미러
과민
전산망
덕아웃
하늘나라
##모닝
##식도
독실
전래
수송기
##백서
합쳐진
영화인
당구
프라이
풀가동
##로마
##그름
##고무
옥살
##찌그리
##정규직
대구경
불모지
너그럽
노무라
상무부
삼일절
속속들이
노부
로라
##다고들
궐기
##경화
##~~^
되도록
개인위생
포장지
인색
김영환
이희호
##억만
노심초사
##국물
막이
하승진
고쳤
대청소
##수기
진구
비루
서럽
서핑
##마사
쌍꺼풀
글라스
##아르
차고
은빛
##귀가
피니
##갑의
##심리학
나성범
코마
청색
설파
##구해
##판국
박범계
늘이
부자연
##발상
불협화음
이상주
##천배
미즈
절경
##들어올
나태
통영시
우스워
##나주
렉스턴
##버블
놓아주
재투자
메롱
무등
수목원
김상수
##찬탈
아리스
국산품
##쿠스
스크립트
숨죽이
##깊이
바통
박격포
글렌
짤려
##다지
계양구
LCK
##지롤
화들짝
본고장
##다매
침구
일파
성곽
나토
##쯧
간호학
##방비
버버리
대출자
뒷부분
예명
##진리
넘겨야
##규격
##'"
제모
제방
브래드
뜬금
캐내
태평
오의
##후군
##다움
이즈미
자이
오다리
재벌가
호프
임수경
모진
근사
바라본다
##권총
##밥상
##보사
##위선자
##계곡
대역죄
##구르
##170
사르코지
##라디오스타
치켜세우
ARS
##성역
##돈의
궁예
개씹
##애니
##싱이
어림없
조련
부쳐
앙리
##정하
##니트
##칩니다
##어만
포렌식
세속
인슐린
성룡
##꽝
##냄비
결정체
SPA
##모니터
화이
녹십자
쿠퍼
뉴캐슬
##개별
##세리
야마
먹힌
##시크릿
그리곤
요람
숙박비
동원령
##생계비
##박쥐
##해군기지
솔솔
##욕은
##시바
악습
##어쩌구
아련
밝혀져야
나이트메어
조졌
##산점
##담합
마모
성모
뭉가가
이실직고
다단
아랍어
나카무라
부추겼
##복이
번져
페르
심함
가동이
##너라
정시로
김부선
드나드
불출석
##교역
감언이설
찍자
##공여
##멀쩡
자생력
##동반자
에스컬레이터
##혀서
◆"
난징
떨어뜨렸
손쉬운
##돌린
엇갈린다
윤모
CMA
가정집
불량품
수족관
모여라
통근
베네치아
사쿠
밀림
데이브
부술
난도
조찬
##남침
강해진
커비
쌀밥
##112
부르짓
나찌
##날지
##전개
전횡
##미판
##치워
##약관
달려왔
ai
에인절스
난폭운전
영재교육
벌린
열창
플라잉
족히
쇠락
신격호
본회
##곡선
떼거리
덤핑
##학군
##임영웅
마신다
##여전히
##함정
메꿔
부질없
모노레일
랜스
노컷뉴스
##테크윈
사역
##감찰관
애벌레
버틴다
전구
전투복
텐센트
##증여
진드기
207
##사내
장발
요동
연금술
투싼
오작동
재보궐선거
##동창
위업
강산
폭발력
가르키
리카
##한민
##240
나빠진
##기술인
##복제
병명
##걔
현무
흑화
##캉
오질
왕도
불쑥
걸어오
##성우
묻힐
결점
에덴
증강현실
참관인
한국지부
##비방
##투신
경주마
헤집
골든글러브
##싸가지
산의
##석춘
##저수지
##오로지
거져
##다구요
지바
##퇴임
상충
##비서실
숭례문
깨부수
굶주린
##방망이
##구원
계셔서
강해진다
코란도
양재동
##처서
##조나
번창
1939
준장
항균
##고령화
##문장
벌거벗
전출
##기스
연말연시
##황이
전말
밀리터리
##책임지
##박힌
드로잉
##제비
##헤어
시료
우숩
##과학자
뒤통수치
얼떨결
여순
##라데
배회
##시청자
안토니오
쟁이
##내란
차단제
특선
미룬
##만호
##전시실
날라오
복불복
정해야
##뚜껑
사스케
맘놓
4800
오점
##으려니
##에고
Wii
들어올리
헤더
존폐
##세균
떠밀려
흘러나왔
##여의도
갇혀서
##메리
##판교
패가망신
쓰여진
따라갔
##대호
##질려
파묻
##기업체
급파
맛난
들여보내
##1999
##편인
숨져
근시안
패인
금정
##편식
오도
길이길이
희소성
김태원
가곡
피보
##무현
##가옥
##CCTV
미애
지방비
##부시
난개발
한국가스공사
##의지
가련
##트이
해의
##시끄럽
쳐올리
내려도
두툼
일본제
모나코
원해
##어기
답안
아방궁
자습
기관차
##가까운
공영주
키움
포항제철
골다공증
경부
##흥청
핀잔
소년원
##중구
터무니없이
##언급
제빵
##%+
브루나이
신세계그룹
거버넌스
##나온다고
움켜쥐
평균치
##격투기
아귀
각박
둔기
경계심
이만수
지휘부
##복싱
할인점
붙잡힌
##고마
!..
동급생
운다
이베이
집들이
뇌도
##절반
추수
이안
용접공
대공포
닭장
실재
지운
내력
김주찬
##끄러
##급하
재료비
혈연
not
벤틀리
한기
도립
##노라면
##살해
##쳐야지
백조
현미경
동탁
##은가요
펼쳐야
태릉
##쪼개
씀씀이
개나리
뇌리
하대
##교육장
밀양시
기른
NSC
뉴스룸
##스웨덴
자바
##정연
갈비뼈
태화
##뢀
중헌
엄히
계신다
##기사단
슬퍼
##직종
##붙여서
배변
##일산
석화
합쳐야
##실래요
답보
샤오
벌여야
##상륙작전
산실
##NC
##깨진
gr
우군
헌병
##본명
앙심
부추긴
값싸
간극
레더
##날조
##챙겨라
버겁
##광산
종석
터프
풍긴다
도미
어젠
##망해서
##코리안
들락날락
퍼뜨렸
##만찬
증감
절전
피랍
에리카
CNS
##치러
##.~
을사오적
원초
데이빗
##베이스볼
흐릿
출가
NBC
남조
술탄
##나타나
복통
신사동
정례회
투자액
외쳐야
##지났
봉제
성취감
390
유채
청담
부활절
##국익
쫓겨났
드라큘라
##녹음
카르마
슬램
엄단
##잖소
##켠
이속
피니시
피리
매복
장타율
##본지
##선장
신협
##리카
잡화
##파산
낱말
##동성애
##특급
조재범
재우
##공개념
골방
##그제
##줫
##글라스
크리에이티브
풋볼
##동문
호되
마소
동대구
배웅
##신기록
##헛
표상
영수
##반과
##불러서
접대부
지켜낸
발사기
##기록관
찬성표
살육
스칼렛
헛스윙
내모
vip
난전
광광
왜사
뭉게
황금연휴
워런
배재
주원
포장마차
##빙상
##대한항공
정병국
##춤추
##문지
자긴
##수성
촌놈
##No
규슈
본방
고물
뽀로로
의술
양배추
변압기
돌격소총
뒤지기
칼부림
쇼와
터치스크린
206
##수협
##제대
서문시장
양팔
휘발
뭔줄
감사패
열의
##클로
사이렌
친위
##조라
##호만
매겨
천마
그레이드
조각상
동식물
복고
##틀린
운동회
##이자이
##FT
##후드
열대야
산간
노인정
##찌르
장보
##소추
쪽방
##나팔수
괴한
멸족
##합치
유구
##하차
일교차
##할란다
합헌
##교복
양날
갱년기
편백
우크라이나
눈독
##종대
##시흥
장하나
##환상
모른다면
두꺼비
남하
섭리
매미
##메디
인천공항공사
비슷비슷
달팽이
익힐
둘러본
탈선
저시
##빗
둬서
##환경청
달라져
##220
사인회
##운전사
##일색
##뻗
##오사카
올곧
초짜
악다구니
참기
##추문
라이드
근방
날아온
불러들여
샤를
젖소
##모니
손서
빨라진다
##！
##칠까
##개발비
##여경
영화사
낚이
육신
내줘
브런치
##IOC
##끗
##시켰으며
병역면제
##유령
눌려
맛본
##!,
SAT
##극치
여호
##정전
뒷말
이오리
풀코스
귀담
AB
잠긴
충무공
##몰의
범칙금
득표수
##즌
III
밀정
온실
##수신
당함
##원금
문학상
초일류
기망
외래어
따라간다
백억
IQ
##무게
##게리온
치러졌
알프스
배상문
달통
고독사
유식
넘긴다
유니세프
으름장
속눈썹
##엘지
임요환
스포티지
이판사판
께서
건축비
막노동
민석
오간
토비
이주열
##타임즈
##활력
마음대로
##광물
히나타
식빵
곤봉
인장
이뤄지도록
##아달라
행동력
##개통
노블레스
아씨
광활
조응천
슈퍼카
빠뜨린
할렐루야
구속감
종지부
떨어져라
티타늄
걸린다고
##그래프
관람료
예금자
##시보
황급히
덜덜
##살내
##개독
##키운
##타이틀
오존
쪼그라들
살아요
세전
든지
들여야
증산
후끈
양용은
##붇
##래스
232
031
페더러
환희
부추키
센카쿠
이코노미
시화
셜록
##진중권
탐나
누려
##수제
##젝
##악장
##래니
##루나
픽셀
##여우
도요
픽션
청자
##자키
되야지
꼴뚜기
##솔라
##께선
인문계
##질려고
장밋빛
옮겨서
##점주
DDR
##강대국
윤지
레버쿠젠
송은범
재소자
이케
예하
버냉키
떡고물
유괴
교배
옥탑방
##토요일
추도식
정류소
마에다
##스컴
##하도급
카누
최하위권
부직포
##IPO
##승마
쌈질
##로리
불어오
황산
밥통
##진단서
특설
자가당착
미완성
외박
김동철
라미
##구슬
질수
득실대
8500
##1600
김현중
팽개치
##습니다만
조종당
가로수길
##쭉
할인율
아몬
물어본다
둘러볼
도급
쉬운데
##나도
##프레
우연이
외톨이
휘성
회장단
##대미
발렌시아
예배당
##마츠
##본질
참외
##일합
비틀즈
##125
##주정차
군가
먹혀
##마르
##사부
질린
##본과
##힘든데
에이핑크
추미
벡터
갈고리
테이저
소도시
마주친
중전차
##온난
##자포
흘러갔
나가사키
##식한
##부하
뜯어보
애물단지
임원진
전해진
독버섯
넓힐
수행원
도화선
도마뱀
수틀리
남주
껴서
부국
##갈라
늦장
인포
노스페이스
##한게
모레
페이트
놔야
##조립
##흙
1938
##려니까
##하군
동해안
##김영란
봄꽃
임할
스플래시
꽃미남
##쓸모
##공산주의자
##짚
##1997
##정황
박종철
##카로
장하
성탄절
##엉망
영유
이영표
SCP
도적놈
차안
유격
무거워
밀워키
##음주운전
정력
대민
외국산
진입로
배나
디디
밑바탕
##문예
##세욧
동내
마징가
윗집
리무진
##검새
##관리도
일렉트로
신라호텔
마그네슘
동년배
황희
흥선대원군
##철폐
콧수염
봉황
##무니
이완
연륜
빈센트
##강경
##장로
젓갈
싱크
일깨우
##가람
한국야구위원회
##내편
레나
어쩌구저쩌구
##더기
승리자
답지
부동층
관리법
마쳐
더딘
원합니다
##새이
에밀리
##통해서
알아본
람보르기니
①:
##유야
##그만큼
일세
##모지리
전석
프랑스군
척박
##대혁명
바꿔야지
오싹
손수건
김황식
요망
격전
Life
춘절
다람쥐
행여
자일
##배워라
신선도
##그분
배당주
욕심내
묵과
종착역
##주력
둔치
홈런왕
제스
##무인
고조선
강의료
오스트리
대했
일어설
##메이저
마기
##끌기
##색은
히가시
##란가
시마
일파만파
부창부수
##치아
레인지
클락
##명인
당찬
김정우
##한데다가
황새
공장장
봉우리
안타까워했
오스틴
체재
반역죄
판이
샌드
##선충
오스트레일리아
##DB
신통
##닛산
푼다
태평성대
매달렸
##xxx
버려서
몽환
##됫
치울
##반박
구례
문발
눈총
수화
내려찍
##속초
##경전철
오메
##고파
조리법
불거질
뮐러
직업인
양강
##배추
유불리
트레버
##겨우
대추
다이나믹
##550
박정환
가려라
레이크
숙박업소
부러
##조한
임대업
숙적
모회사
프로이센
쿠쿠
엑스코
선불
일궈낸
출금
레귤러
미뤄졌
하두
##우당
##네덜란드
##합작
절충
##박과
셈법
놔둘
어메이징
구찌
수역
##시네마
##초청
재고량
징그러운
봅슬레이
렌트카
##씌
상법
술책
##대전의
##👍👍
직언
초사
부총장
##NO
배율
자살자
파파
만드세요
##그런지
보낸다고
아닌데요
건드려서
거닐
박테리아
명령어
네이밍
비상시
##다방
갱생
해양경찰
니콘
##금강산
라떼
직분
골망
##다워야
##부적응
채광
수양
304
##사이다
주입식
계장
##저건
헤라
제조업체인
사이토
시킵시다
##행렬
송승준
유영철
연놈
##부친
##밀집
##사각지대
구충제
##밧
성창호
묵묵부답
체육회
성체
##독립운동
데얀
상수
##램프
구시
무르익
인어
한국전력공사
났으면
노미
##심의위
프론트
기프트
저상버스
##ｇ
바꿔도
이슬
##해가
코브라
빙구
정진
1937
연천군
인마
치맥
##인입
##르노
거주민
215
논거
│→
자유민
홍가
##호황
우이
샌드박스
방청객
토키
면목
##직장인
참새
현판
애경
돌아
힘써야
GG
웨이트
평상
이철우
들킨
##로지
스노
발린
김성
단층
##생김
출발선
가주
인력난
리젠
부총재
정우
##만났
##낚시
게으르
안정환
임페리얼
##절하
##부치
태어났으면
생긴다는
##무서워
풀로
치바
뒈졌
mm
##잔데
개아
##예술단
##in
##휠
그른
동명이인
광전사
##행량
##베이징
니콜
콧대
지칠
##마따나
##선조
275
##송파
하달
스파르타
영삼
모성애
산양
엿보인다
##뮬
##생활비
네모
섭렵
시레
흠잡
해일
끌어올리기
##지휘자
혹자
급작
여전사
넉넉히
##면도
아웃소싱
##AS
하라
옥스퍼드
##외모
헛다리
##하리
편향성
하이트
슈퍼볼
##스포일러
뻣뻣
##좀비
쫄따구
넬슨
광해군
##효로
실권
한옥마을
심슨
##나이츠
시이
모셨
무궁화호
##바퀴벌레
철들
생중
##드러나
파스
백정
하드코어
머릿수
##까먹
총열
##날까봐
존칭
간도
집배원
피날레
##해낸다
##365
해조류
##라디
몰랑
밀쳐
우원식
이스타항공
##st
##거려서
당수
요법
##기미
개천지
라바
자다
군데군데
이녀
##라이더
##유인
명랑
##：
##고서라도
아쿠
프랑
직군
회관
##라즈
##가지가지
금상첨화
정량
박진감
은상
가택
되살려
쓸려고
##생애
##신성
태동
##가야
주사기
##성산
쉬워진다
좌국
전하
걸지
동분서주
##버터
기뻤
다도
추신
건설업자
##당제
##못함
##표면
##주네
##창원시
옳소
##크리스마스
빈사
약혼
##런닝맨
##인출
##결전
##약한
마코
무지몽매
급발진
걸어도
세레
잘렸
##자드
##제압
##셩
박세리
디에고
불철주야
꼬장
에버
전봇대
포브스
##박근
얼만지
지나쳤
##슴다
오재원
MSL
구색
##그럴까
무표정
위너
답방
돌팔이
캐치프레이즈
영화판
##주진
탐지기
아사다
##직시
어자
호강
졸라매
##워드
##아쉽
동네방네
##마른
중고생
##막혀서
##미관
주옥같
니코틴
차일드
브라더
##그럼에도
##마신
넘어져
에일리언
##테크놀로지
##슬프
차려서
내맘대로
논밭
##새해
광석
빗장
##금포
##마들
##공교육
이정수
##우월주의
임산
전근대
##작작
화물선
##이단
측정기
흔들려
##희생자
##차로
시아버지
잡담
시추
지명도
금오
청취자
##분단
##쪼다
미들
우직
커터
일루
고름
##강물
SG
맏형
점쟁이
태웠
올라갈수록
괴이
둔감
온난
창건
##수감
사각형
오른다는
퇴짜
##닌깐
괴롭힐
미라클
불났
소매치기
대규
별건
##운임
준결승전
##웨딩
울화
최신형
아니오
아량
##야마
##판인
배고파
뒤떨어지
벅찬
울릉
제다이
SKC
##개와
곡식
##취량
산탄
야마모토
헤메
##호법
베껴
닫히
##셰프
##부야
##간단
가져온다
대드
방파제
최단
##관위
##이크
야자
초임
##정거장
##매경
쌈짓돈
##입니다만
올지
총사령관
작명
부지사
리포터
평화상
이룰
유심
##탄도
빨아들이
##다치
셀러
##투표용지
남작
농산
##전문지
PEF
캐럴
##뿌려
##쫑
적산
##나와요
잔다
은유
제이미
작두
몸뚱아리
춘추
가마솥
엽서
한당
주나
현관문
종파
천일염
스티어링
정색
개마
가십
현아
베이스볼
곱창
다고
내키
##바꿔라
집적
받드
보여줘라
소지품
났었
##오피스
묘비
개주
##아나운서
정형외과
1550
##무치
##불려
중흥
##트윗
난조
##불렀
##자식이
기혼
##1800
이상훈
뭉가는
주안점
인과관계
냉난방
바구니
클라이언트
##바르셀로나
돈세탁
##레알
##핵무기
포커
##체류
사석
Free
평원
##비단
투옥
부추겨서
비즈
SSR
콧방귀
요긴
밀반입
별점
올림푸스
마닐라
전원주택
##리엘
우열
청량리
에비
비닐봉지
기민
##과도
도네
씨제이
쏘렌토
정통성
##코믹스
바레인
질도
윤규
##미나
오덕
포레스트
밀어붙였
김치냉장고
호찌민
칫솔
##연주
체증
차린다
히터
가르고
초코파이
##정보국
뮤즈
종교계
##보너스
용쓰
철딱서니
동창회
##너리
손승락
##부역자
##쓰레
##감세
계발
##스탠리
공중전
국선
##이분
완투
안부
##6500
유틸리티
대납
혼잣말
적개심
모터스포츠
은행나무
번호표
보인다면
카시트
##고라
환관
##이순신
일변도
우표
꽂혀
자동차세
기입
미얀
##WBC
줄때
차비
럭비
고흥군
경조사
교육학
##란트
끝난다
##1300
혈기
지존
쟁탈전
채워져
당무
##주적
##💙💙
그제야
##커서
##관사
IM
##KLPGA
송장
도적질
이뤄야
사대부
강동원
아소
브레이브
##배후
이율배반
소방방
합장
김민석
성채
닮은꼴
이인제
물으니
##미추
연거푸
조경태
걸린다는
클레어
사발
윤장현
##로크
##무마
##단축
복이
방의
브로
브로드웨이
이네
##디젤
##여행가
통구이
다인
##수용소
##바뀔
태울
생산지
기모노
남김없이
자연사
스팟
벨라
감자탕
애걸복걸
##새우
2040
DSLR
몰려온다
##딥
생식
흩어진
스탬프
김재환
올랐으며
구석기
911
옹기
졌으면
털기
##펑
제과
도공
##구린
##선원
##시브
초식
##마우스
리쿠
노르
우러러
브루
무교
주워먹
##자왈
횡단보도
이용권
목구
홍석현
##잰
##낀다
##몸통
인질극
정년퇴직
차범근
자수성가
##웃사랑
파쇼
맹공
시효
##동거리
넘겨서
털털
내실화
개리
##노태우
##귀도
##포탈
##열매
안치홍
욕질
재이니
지켜냈
여물
##구지
저격총
한국감정원
##야제
##더더
이긴다고
공심
##항모
##니즈
##정유라
퍼먹
엘베
##내려놓
##정자
##나간다는
상수원
울진군
Good
베젤
##기업가
##페라
##시외버스
펄스
한정식
##녹지
##TP
##제휴
암약
치수
변혁
조문객
##법사
트라
MIT
##핸드
액면
##과대
##전시장
순찰차
레이나
레이건
##저주
##섞인
숙면
데려갔
다이너마이트
종묘
몽니
서현
판매액
밀리언
##치려
삼족
제창
##산행
##일찍
제값
낮춰서
살의
자위질
짤방
##측면
191
##공양
오색
##WTI
##으다
##던디
##영원히
##맏
낮술
##횡
##공관
한국갤럽
깁스
진짜로
##꼴찌
숙종
여심
처방전
으레
공공장소
증가량
##엣지
게이밍
열자
검수
수군
드리프트
##껴도
부녀자
싱글벙글
##성지
최재성
나인
##무용단
말끔
우전
##양주
진나라
##슈팅
제식
##일땐
인사동
기총
DMB
결정타
되갚
박삼구
##원판결
아양
도입부
거느린
##입력
##㏄
##접속
tbs
팔아넘기
##아라고
##러쉬
지류
군용기
##듭니다
##냐니
##화려
대뜸
영구히
##사표
연제
##사족
##1400
본교
섬광
##구두
궁핍
211
##수면
212
일렬
박살났
일념
##패스트
##응의
물티슈
우편물
시금치
넘어졌
헛소문
##mL
복귀전
박봉
##프린팅
족구
##더라구
속좁
고지서
##난사
##랏다
들이미
##배정
우글우글
계획서
리눅스
어라
정치계
수술비
들락거리
에지
##련관
##관련자
주마
모셔라
##쿼
유희관
입출금
밤길
기스
맡긴다
##사슬
무뚝뚝
기내식
영도구
##야크
문진
동북아시아
파다
##NH
##타이밍
안치
노쇠
명예직
축구팀
##지력
##동아일보
작금
##공중
견과
김태형
##들어온
Mr
##랬더니
좌절감
영전
눈초리
서툰
##OO
금정구
##카르
라파엘
극형
폴리스
구술
리미
##노동청
Moon
아셨
##평범
228
##기전
케이프
수선
##스팅
지나쳐
콘트롤
##환사
삼화
로브
칼럼니스트
친했
##거렸
회항
먼지털이
가금
##수영장
클라크
##쥔
##파출소
농업용수
삿대
##듀오
##연주회
서슬
한솥밥
##더듬
알파인
##이마
탈주
감사원장
울지
거래세
환심
족하
양동
삽화
야생화
식인
##jpg
##들어서
가렸
와타나베
저걸로
라돈
##소린가
##나선
##잉글랜드
저물
예타
턱주가리
걷히
해시
무브먼트
가스통
##환장
김승현
##하원
전태일
잊어
라이징
##건너갔
탈핵
정월
절대다수
신뢰감
##명과
두려웠
재단법인
아류
##상표
끌어들인
##더라니
장사도
##빈곤
##전수
외할머니
백도어
막아서
##053
파토
##갈리아
기막히
입석
히메
영천시
자망
큼지막
풍수
진정서
##남구
니시
태안군
어쿠스틱
해칠
##천지인
##봉인
##아가씨
하객
중차대
벌주
올린다는
##충당
410
색조
선종
수필
##반역
발기부전
번번히
##고환
##능정
##천하
시키네
근현대
얕보
발짝
레아
깨뜨리
가랭이
KTB
반대급부
걸으면
편제
이상호
시류
풍조
전기톱
덮개
입조심
브릿지
214
##심상정
추가경정예산
##왼쪽
##가닥
당나귀
몰골
술잔
##연아
암각화
이어가기
아편
마카
##모범
##테이프
뱅킹
기물
통이
눈치챈
##볶음
임차료
딱한
층수
유원지
바그너
준다는데
##Mbps
강해질
뇌세포
##중량
남향
삼성엔지니어링
때려치우
무증
퀀텀
박장대소
##사력
드린
##페리
##신과
주파
찔려서
전통주
245
해준다
문화제
##경상
연습장
##봣자
##중학생
미화원
뒤틀린
진찰
예탁
정부서울청사
브릭스
김세영
조마조마
##OLED
굳어지
##깝을
비행선
##는다더니
파먹
분다
충치
감돌
병문안
뱃길
##활수
칭다오
후임자
광주비엔날레
##만유
고엽제
##라이즈
너덜
예치
올바로
죽치
해밀턴
잊어버렸
##회견장
##전무
황무지
이어질지
발진
은색
활활
포트리스
##때려잡
순결
의복
제주특별자치도
다이스케
발명품
이래라저래라
##괜히
##렵니다
##104
##래쉬
염불
나타
영호남
##영과
##음반
전공의
팔라딘
이종석
첨보
지킴
레닌
직업훈련
영락없
DP
##무진
어르
구닥다리
지껄인
호사
스냅드래곤
##^^~
##점심
장모님
##주대
논설위원
##아와
발성
그까짓
##저소득층
대문짝
김영
##환경부
##집계
수발
정규군
소비세
##강남스타일
스완지
##캐스터
고발장
질식사
흑의
##편가르
직렬
나루호도
서울광장
서기관
꼬셔서
##돌대가리
##자질
머뭇거리
농수산
키코
뉴저지
라이엇
철강재
PvP
게이버
고학력
##도마
카바
충정
김장훈
UCC
##코메디
##디만
마요
##쨩
하토야마
혼재
고마웠
##㎝)
해설자
##멋지
216
김희선
##차려서
괴짜
대동단결
도사리
##마취
합쳐져
십자
주채
리노
발인
##나나
역이용
색은
가리켜
##비상사태
돌볼
진저리
마져
##정직
##피플
배기
놀러가
조망권
메운
범실
엎드리
경박
빚쟁이
유흥업
##시리아
윤석
##라크
##석동
We
네버
##운사
밑빠진
식칼
명성황후
##리츠
##한두
쌈지
거둬들이
##범퇴
점마
뒤떨어진
##커지
수그러들
요구르트
##암튼
돌멩이
강남이
광택
모셔야
닥쳤
##103
수렵
가계부
삼각형
뻥끗
##때려라
##흐르
지껄일
바꾼다고
##공비
##쌍도
노마
나간다고
연출자
일희일비
개취
망막
##본점
##도립
##풍경
##볶
잠자코
쳐죽이
ING
##사물
##스트라이크
성리학
강속구
NEW
예비비
바이올렛
##흉내
뒷걸음질
갱단
NYT
해안선
묘수
처칠
##거절
##공략
공병
떠올릴
##마셔
박치기
##신안
도가니
금식
함축
포승줄
##비호
황금기
숙대
##발효
비속어
RAW
조원태
역사학
히카리
갈일
China
하중
깨진다
장려금
경범죄
고기압
콤팩트
##초보
건너간
상놈
에르메스
##유물
막대기
##이적
체납액
코타로
##초도
##모래
##브레이커
##기부금
조원
##증권사
##석차
주립
뒤돌아보
매머드
루스
꽃가루
##토탈
드래곤즈
가도
회신
빨라질
연착륙
감초
송아지
##자민
##구치소
편대
수호신
휠라
##초년생
북서쪽
술법
-_-
##코스피
몰라보
##전년
미호
어쌔신
물정
기삿거리
상은
##편안
스노보드
참가국
우간다
물병
김현아
향할
생활관
##남친
Of
레비
영업용
무혐
##비료
##PF
결손
##스프
정교회
위신
대산
동면
고담
찔끔찔끔
독약
허탈감
##시골
파충류
Time
##마무리
돌잔치
자임
흉수
살상력
모나리자
촬영소
탄약통
픽업트럭
모의전
공군사관학교
해군사관학교
낙법
오버로크
근엄
몸가짐
비브라늄
우주여행
곤색
슬레이어
비스킷
전족
대기업
흡습성
##부러워
중앙역
오프로드
도형
##사각형
플레잉
자기소개서
##사관학교
육군사관학교
꾸러기
팥빙수
##빙수
감염증
연출력
영상미
서스펜스
졸작
망작
부라릴때
쓰러짐
킬링타임
이상해
타란티노
종방
막방
존잘
죽치고
왠만해서
흡입력
재개봉
싸움판
재밓당
구리지
모든게
연속극
ost
개작살
개연성
연기파
외국판
빠순이
표현법
##펭귄
원탁
패자부활전
부다페스트
노잼
##노잼
어마어마한
흘러도
짜가
말랑
센세이션
개답답
스피디
신파
경극
스킨헤드
신남
귀요미
촌동네
상영물
평작
고스란이
낰였다
슬펐던
파인거
뽀글이
릴렉스
위메프
그램
짬짬히
맴매
립싱크
개웃겨
귀여웤
물회
확대경
서린
전형적인
카타르시스
ufo
주성치
좋았다
지루함
완성본
전차부대
좀비
좀비물
어딧노
늘어짐
꾸밈
저수지
씐나
최곤데
삼만리
감상문
볼만함
비됴
쇼핑백
케릭터
하이틴
말이얌
젛아
감상평
시퀸스
버러지
안무서움
안어울림
스펙타클
부탄가스
cg
으리
신나고
미확인
하숙집
하숙
심오한
심오
굶주렸
녹아든
하숙생
##학년생
괜찬아
##렷다
출첵
만보기
엔진오일
지마켓
제휴사
기프티콘
마케터
준대서
상담사
ERP
VDI
vdi
VPN
ppt
lock
pdf
PDF
포워딩
텔레콤
아웃룩
뽀시래기
빠른데
우왕
쏘리
안녕히
헬프
ㅎㅇ
오래간만
하이염
캐쉬백
mt
사천성
오사라
미적립
시팔
로보트
캐시백
스토리지
APP
플로우
패스워드
무선랜
사물함
SAP
HDMI
DVI
RGB
내선번호
졸려
클레임
나뻐
때려쳐
후지네
최애
기요미
헬로우
법카
구함
현금화
급전개
해리포터
어설픔
잔재주
떡실신
원주율
졸려서
견자단
킬링
성냥
재밌다
디카프리오
먹먹해
타짜
룸메
룸메이트
ㅎㅌㅊ
ㅍㅌㅊ
ㅅㅌㅊ
울버린
버켓리스트
개살구
스필버그
발연기
쩌러
사나운
보도국
오프사이드
침입자
매일유업
대여점
자갈치
자영업자
지피지기
초신성
초겨울
전국민
스마일게이트
감찰관
가녀린
접대비
케이웨더
향기로운
응집
브이넥
YMCA
잔여분
버클리
탐사선
해안포
미망인
쇄신파
직류
현수교
솟대
비듬
카운슬링
송사리
왜소한
수필가
이승복
말보로
자취방
엔씨소프트
청포도
벌초
청춘스타
과묵
농식품부
후식
감별사
미슐랭